node {
  name: "global_step/Initializer/zeros"
  op: "Const"
  attr {
    key: "_class"
    value {
      list {
        s: "loc:@global_step"
      }
    }
  }
  attr {
    key: "_output_shapes"
    value {
      list {
        shape {
        }
      }
    }
  }
  attr {
    key: "dtype"
    value {
      type: DT_INT64
    }
  }
  attr {
    key: "value"
    value {
      tensor {
        dtype: DT_INT64
        tensor_shape {
        }
        int64_val: 0
      }
    }
  }
}
node {
  name: "global_step"
  op: "VariableV2"
  attr {
    key: "_class"
    value {
      list {
        s: "loc:@global_step"
      }
    }
  }
  attr {
    key: "_output_shapes"
    value {
      list {
        shape {
        }
      }
    }
  }
  attr {
    key: "container"
    value {
      s: ""
    }
  }
  attr {
    key: "dtype"
    value {
      type: DT_INT64
    }
  }
  attr {
    key: "shape"
    value {
      shape {
      }
    }
  }
  attr {
    key: "shared_name"
    value {
      s: ""
    }
  }
}
node {
  name: "global_step/Assign"
  op: "Assign"
  input: "global_step"
  input: "global_step/Initializer/zeros"
  attr {
    key: "T"
    value {
      type: DT_INT64
    }
  }
  attr {
    key: "_class"
    value {
      list {
        s: "loc:@global_step"
      }
    }
  }
  attr {
    key: "_output_shapes"
    value {
      list {
        shape {
        }
      }
    }
  }
  attr {
    key: "use_locking"
    value {
      b: true
    }
  }
  attr {
    key: "validate_shape"
    value {
      b: true
    }
  }
}
node {
  name: "global_step/read"
  op: "Identity"
  input: "global_step"
  attr {
    key: "T"
    value {
      type: DT_INT64
    }
  }
  attr {
    key: "_class"
    value {
      list {
        s: "loc:@global_step"
      }
    }
  }
  attr {
    key: "_output_shapes"
    value {
      list {
        shape {
        }
      }
    }
  }
}
node {
  name: "Const"
  op: "Const"
  attr {
    key: "_output_shapes"
    value {
      list {
        shape {
          dim {
            size: 2000
          }
        }
      }
    }
  }
  attr {
    key: "dtype"
    value {
      type: DT_INT64
    }
  }
  attr {
    key: "value"
    value {
      tensor {
        dtype: DT_INT64
        tensor_shape {
          dim {
            size: 2000
          }
        }
        tensor_content: "\r\3121\001\000\000\000\000I\3131\001\000\000\000\000\221\3151\001\000\000\000\000\325\3141\001\000\000\000\000\377x3\001\000\000\000\000<R3\001\000\000\000\0000\3151\001\000\000\000\000\014\3141\001\000\000\000\000\252\3131\001\000\000\000\000\370\2461\001\000\000\000\000\207Q3\001\000\000\000\000\266\3131\001\000\000\000\000l\3141\001\000\000\000\000\370\3151\001\000\000\000\000\233\3131\001\000\000\000\000\022\3141\001\000\000\000\000u\2403\001\000\000\000\000m\3141\001\000\000\000\000\032\3141\001\000\000\000\000>\3151\001\000\000\000\000t\3141\001\000\000\000\000jB2\001\000\000\000\000\366\0302\001\000\000\000\000\370\3151\001\000\000\000\000\322\3121\001\000\000\000\000\007\3161\001\000\000\000\000\230\3151\001\000\000\000\000\377\3151\001\000\000\000\000\337\3121\001\000\000\000\000\032\3141\001\000\000\000\000E\3151\001\000\000\000\000\235\3151\001\000\000\000\000\322\3121\001\000\000\000\000\356\3121\001\000\000\000\000\023\3141\001\000\000\000\000\014\3141\001\000\000\000\0009\3131\001\000\000\000\000\261\3131\001\000\000\000\000\005\3141\001\000\000\000\000e\3141\001\000\000\000\000\377\3151\001\000\000\000\000\325\3141\001\000\000\000\000\377\3151\001\000\000\000\000\344g2\001\000\000\000\000\254R3\001\000\000\000\000e\3141\001\000\000\000\000\264\3111\001\000\000\000\0007\3151\001\000\000\000\000\005\3141\001\000\000\000\000\307\3141\001\000\000\000\000\032\3141\001\000\000\000\000\333\3141\001\000\000\000\000\325\3141\001\000\000\000\000\266\3131\001\000\000\000\000\034\3121\001\000\000\000\000\246\3151\001\000\000\000\000\361\2461\001\000\000\000\000\334\3141\001\000\000\000\000\022\3141\001\000\000\000\000t\3141\001\000\000\000\000\221\3151\001\000\000\000\000f\3141\001\000\000\000\0000\3151\001\000\000\000\000\334\3141\001\000\000\000\000\255\3111\001\000\000\000\000\034\3121\001\000\000\000\000\264\3111\001\000\000\000\000m\3141\001\000\000\000\000/\3332\001\000\000\000\000k\2152\001\000\000\000\0007\0322\001\000\000\000\000s\3141\001\000\000\000\000\017\3161\001\000\000\000\000\331\2363\001\000\000\000\000\r\2403\001\000\000\000\000\031\2642\001\000\000\000\000\316\0312\001\000\000\000\000\375\3611\001\000\000\000\000\206\3121\001\000\000\000\000I\3131\001\000\000\000\000\032\3141\001\000\000\000\000\007\3161\001\000\000\000\000\363\3151\001\000\000\000\000\261\3131\001\000\000\000\000\334\3141\001\000\000\000\000\337\3121\001\000\000\000\000x\3121\001\000\000\000\000\365e2\001\000\000\000\000\307\3141\001\000\000\000\000t\3141\001\000\000\000\000\022\3141\001\000\000\000\000)\3151\001\000\000\000\000\363\3151\001\000\000\000\000N\3131\001\000\000\000\000N\3131\001\000\000\000\000\377\2461\001\000\000\000\000\264\3111\001\000\000\000\000\025\3121\001\000\000\000\000B\3131\001\000\000\000\0003C2\001\000\000\000\000\017\3161\001\000\000\000\000\272\3111\001\000\000\000\000E\3151\001\000\000\000\0007\3151\001\000\000\000\000x\3121\001\000\000\000\0009\3131\001\000\000\000\000t\3141\001\000\000\000\000\035i2\001\000\000\000\000B\3131\001\000\000\000\000>\3151\001\000\000\000\000\246\3151\001\000\000\000\000\377x3\001\000\000\000\000\235\3151\001\000\000\000\000\331\3121\001\000\000\000\000\230\3151\001\000\000\000\000\307\3141\001\000\000\000\000\363\3151\001\000\000\000\000\243\3131\001\000\000\000\000\206\3121\001\000\000\000\000\235\3151\001\000\000\000\000\235\3151\001\000\000\000\000q\3121\001\000\000\000\0007\3151\001\000\000\000\000\230\3151\001\000\000\000\000?\3151\001\000\000\000\000\307\3141\001\000\000\000\000\222-3\001\000\000\000\000\345\2461\001\000\000\000\000\334\3141\001\000\000\000\000\270{3\001\000\000\000\000H{3\001\000\000\000\000\264\3111\001\000\000\000\000RR3\001\000\000\000\000\034\3121\001\000\000\000\000\007\3161\001\000\000\000\000\252\3131\001\000\000\000\000\246\3151\001\000\000\000\000\307\3141\001\000\000\000\000\016\3161\001\000\000\000\000\321\3121\001\000\000\000\000{\3141\001\000\000\000\000\221\3151\001\000\000\000\000\023\3141\001\000\000\000\000\246\3151\001\000\000\000\000\302\3111\001\000\000\000\000E\3151\001\000\000\000\000\337\3121\001\000\000\000\000\322\3121\001\000\000\000\000\177\3121\001\000\000\000\000\221\0023\001\000\000\000\000f\3141\001\000\000\000\000\034\3121\001\000\000\000\000\307\3141\001\000\000\000\000\377\2461\001\000\000\000\000\302\3111\001\000\000\000\000\177\3121\001\000\000\000\000\235\3151\001\000\000\000\000\337\3121\001\000\000\000\000#\3121\001\000\000\000\000\010\3161\001\000\000\000\000\356\3121\001\000\000\000\000\234\3131\001\000\000\000\000\347\3121\001\000\000\000\000\302\3111\001\000\000\000\000\322\3121\001\000\000\000\000\020\2662\001\000\000\000\000#\3121\001\000\000\000\000\363\3151\001\000\000\000\000\261\3131\001\000\000\000\000\356\3121\001\000\000\000\000\316\3141\001\000\000\000\000\325\3141\001\000\000\000\000\356\3121\001\000\000\000\000\221\2461\001\000\000\000\000{\3141\001\000\000\000\000\177\3121\001\000\000\000\000q\3121\001\000\000\000\000\264\3111\001\000\000\000\000\230\3151\001\000\000\000\000\356\3121\001\000\000\000\000\336\0272\001\000\000\000\000\025\3121\001\000\000\000\0000\3151\001\000\000\000\000N?2\001\000\000\000\000\226\2672\001\000\000\000\000Sy3\001\000\000\000\000\205-3\001\000\000\000\000\016\3121\001\000\000\000\000q\3121\001\000\000\000\000\007\3161\001\000\000\000\000\177\3121\001\000\000\000\000#\2413\001\000\000\000\000\341\2363\001\000\000\000\000t\3631\001\000\000\000\000\333\3631\001\000\000\000\000\317\3601\001\000\000\000\000\001\3651\001\000\000\000\000Hj2\001\000\000\000\000\317\3601\001\000\000\000\000)\3631\001\000\000\000\000\327\2403\001\000\000\000\000\311,3\001\000\000\000\000\016\3651\001\000\000\000\000\270\3621\001\000\000\000\000\353\3631\001\000\000\000\000\023\3631\001\000\000\000\000\346>2\001\000\000\000\000?\3641\001\000\000\000\000M\2172\001\000\000\000\000\016\3651\001\000\000\000\000{\3631\001\000\000\000\000\263\3641\001\000\000\000\000H\3621\001\000\000\000\000\374\3611\001\000\000\000\000 \3611\001\000\000\000\000\215\3611\001\000\000\000\000\262\3621\001\000\000\000\000^\3621\001\000\000\000\000\341\3611\001\000\000\000\000\257T3\001\000\000\000\000\036\0043\001\000\000\000\000\032\3631\001\000\000\000\000\374\2142\001\000\000\000\000S\3641\001\000\000\000\000\261\3621\001\000\000\000\000\344\3631\001\000\000\000\000\025\3651\001\000\000\000\000H\3621\001\000\000\000\000\033\3611\001\000\000\000\000\246\3641\001\000\000\000\000X\3621\001\000\000\000\000*\3611\001\000\000\000\000\033\3631\001\000\000\000\000_\3621\001\000\000\000\000\334\3631\001\000\000\000\000L\3641\001\000\000\000\000W\3621\001\000\000\000\000\300\3621\001\000\000\000\000S\3641\001\000\000\000\000\361\3631\001\000\000\000\000\302\3601\001\000\000\000\000\302\3601\001\000\000\000\000\273\3601\001\000\000\000\000\320\3601\001\000\000\000\000\206\3611\001\000\000\000\000\255\3641\001\000\000\000\000\035\3651\001\000\000\000\000\376+3\001\000\000\000\000\256\3641\001\000\000\000\000\202\3631\001\000\000\000\000\263\3641\001\000\000\000\000\035\3651\001\000\000\000\000*\3611\001\000\000\000\000\207\3611\001\000\000\000\000\001\3651\001\000\000\000\000$z3\001\000\000\000\000\230A2\001\000\000\000\000{\3631\001\000\000\000\000^\3621\001\000\000\000\000\274\0332\001\000\000\000\000\313\2172\001\000\000\000\000\256\3641\001\000\000\000\000E\3641\001\000\000\000\000|\3631\001\000\000\000\000\302\3601\001\000\000\000\000\343\3631\001\000\000\000\000\033\3631\001\000\000\000\000\216\3611\001\000\000\000\000\302\3601\001\000\000\000\000\240\3641\001\000\000\000\000\237\3641\001\000\000\000\000\202\3631\001\000\000\000\000\311\3601\001\000\000\000\000\362\3631\001\000\000\000\000oS3\001\000\000\000\000\306\3621\001\000\000\000\000\335\3631\001\000\000\000\000T\3641\001\000\000\000\000\336\2642\001\000\000\000\000\306\3621\001\000\000\000\000\361\3631\001\000\000\000\000\211\3631\001\000\000\000\000\366\3611\001\000\000\000\000\001\3651\001\000\000\000\0003j2\001\000\000\000\000\376\2672\001\000\000\000\000\206\3611\001\000\000\000\000\013\2642\001\000\000\000\0008\0302\001\000\000\000\000\312\0332\001\000\000\000\000\321B2\001\000\000\000\000\357\3611\001\000\000\000\000\211\3631\001\000\000\000\000\026\3651\001\000\000\000\000\252\3621\001\000\000\000\000X\3621\001\000\000\000\000\035\3651\001\000\000\000\000\033\3611\001\000\000\000\000*\3611\001\000\000\000\000L\3641\001\000\000\000\000\010\3651\001\000\000\000\000\247\3641\001\000\000\000\000N?2\001\000\000\000\000\270\3621\001\000\000\000\0001\3611\001\000\000\000\000H\3621\001\000\000\000\000\246\3641\001\000\000\000\000\225\3611\001\000\000\000\000\202\3631\001\000\000\000\000X\3621\001\000\000\000\000\325\3631\001\000\000\000\000\341\3611\001\000\000\000\000E\3641\001\000\000\000\000\361\3631\001\000\000\000\000a\2403\001\000\000\000\000\220\3332\001\000\000\000\000 \2642\001\000\000\000\000\326\3631\001\000\000\000\000?\3641\001\000\000\000\0000\3611\001\000\000\000\000\256\3641\001\000\000\000\0005x3\001\000\000\000\000\250\2652\001\000\000\000\000\177\3611\001\000\000\000\000\225\3611\001\000\000\000\000\357\3611\001\000\000\000\000L\3641\001\000\000\000\000\023\3631\001\000\000\000\000\r\3631\001\000\000\000\000F\3641\001\000\000\000\000\311\3601\001\000\000\000\000\256\3641\001\000\000\000\000\326\3631\001\000\000\000\000(\3631\001\000\000\000\000{\3631\001\000\000\000\000Q\3621\001\000\000\000\000\017\3651\001\000\000\000\000\253\3621\001\000\000\000\000\311\3601\001\000\000\000\000t\3631\001\000\000\000\000\034\3611\001\000\000\000\000\311\3601\001\000\000\000\000\212\3631\001\000\000\000\000qB2\001\000\000\000\000\203\3631\001\000\000\000\000\211\3631\001\000\000\000\000Q\3621\001\000\000\000\000\206\3611\001\000\000\000\000\350\3611\001\000\000\000\000^\3621\001\000\000\000\000\225\3611\001\000\000\000\000h\2403\001\000\000\000\000!\3631\001\000\000\000\000\207\3611\001\000\000\000\000\035z3\001\000\000\000\000\225\3611\001\000\000\000\000\311\3601\001\000\000\000\000\255\3641\001\000\000\000\000\374\3611\001\000\000\000\000*\3611\001\000\000\000\000W\3621\001\000\000\000\000(\3631\001\000\000\000\000\212\3631\001\000\000\000\000\326\3631\001\000\000\000\000\255\3641\001\000\000\000\000\225\3611\001\000\000\000\000\343\3631\001\000\000\000\000\247\3641\001\000\000\000\000\366\3611\001\000\000\000\000\010\3651\001\000\000\000\000\263\3641\001\000\000\000\000\261\3621\001\000\000\000\000\240\3641\001\000\000\000\000\352\3631\001\000\000\000\000\256\3641\001\000\000\000\0007\0322\001\000\000\000\000\301,3\001\000\000\000\000U{3\001\000\000\000\000\000\0332\001\000\000\000\000gS3\001\000\000\000\000W\0312\001\000\000\000\000\327\0272\001\000\000\000\000\"\0322\001\000\000\000\000)\0322\001\000\000\000\000>\0023\001\000\000\000\000\036\0342\001\000\000\000\000\222\2162\001\000\000\000\000f\0312\001\000\000\000\000\371\0322\001\000\000\000\000\362\0322\001\000\000\000\000%\0342\001\000\000\000\000?\0302\001\000\000\000\000\n\0312\001\000\000\000\000\307\0312\001\000\000\000\000\307\0312\001\000\000\000\000\013\0312\001\000\000\000\000\324\0312\001\000\000\000\000r\2152\001\000\000\000\0008\0302\001\000\000\000\000\000\0332\001\000\000\000\000\243\0302\001\000\000\000\0001\0302\001\000\000\000\000[\0332\001\000\000\000\000a\0332\001\000\000\000\000\303\0332\001\000\000\000\000\025z3\001\000\000\000\000\212\0322\001\000\000\000\000\362x3\001\000\000\000\000\036\0342\001\000\000\000\000%\0342\001\000\000\000\000\311\0272\001\000\000\000\000\212\0322\001\000\000\000\000m\0312\001\000\000\000\000\324\0312\001\000\000\000\000\366\0302\001\000\000\000\000y\3352\001\000\000\000\000\225\0302\001\000\000\000\000\244\0302\001\000\000\000\000*\0302\001\000\000\000\000s\0312\001\000\000\000\000\320\0272\001\000\000\000\000b\0332\001\000\000\000\000%\0342\001\000\000\000\000\230\0322\001\000\000\000\000\234\0302\001\000\000\000\000\237\0322\001\000\000\000\0002\0302\001\000\000\000\000\336\0272\001\000\000\000\000\027\0342\001\000\000\000\000\027\0342\001\000\000\000\000\336>2\001\000\000\000\000\256\0332\001\000\000\000\000]f2\001\000\000\000\000\234\0302\001\000\000\000\000b\0332\001\000\000\000\000\237\0322\001\000\000\000\0001\2413\001\000\000\000\000,\0342\001\000\000\000\000b\0332\001\000\000\000\000\353\0322\001\000\000\000\0001\0302\001\000\000\000\000\221\0322\001\000\000\000\000\303\0332\001\000\000\000\000?\0302\001\000\000\000\000\203\0322\001\000\000\000\000\"\0322\001\000\000\000\000%\0342\001\000\000\000\000\336\0272\001\000\000\000\000\274\0332\001\000\000\000\000\252\0302\001\000\000\000\000\212\0322\001\000\000\000\000\312\0332\001\000\000\000\000\336\0272\001\000\000\000\000\265\0332\001\000\000\000\000m\0312\001\000\000\000\000\256\0332\001\000\000\000\000\212\0023\001\000\000\000\000%\0342\001\000\000\000\000\234\0302\001\000\000\000\000\203\0322\001\000\000\000\000\265\0332\001\000\000\000\000\221\0322\001\000\000\000\000\230\0322\001\000\000\000\000\230\0322\001\000\000\000\000\371\0322\001\000\000\000\000\013\0312\001\000\000\000\000gS3\001\000\000\000\000\357\0043\001\000\000\000\000\305\2662\001\000\000\000\000\271f2\001\000\000\000\000\316\0312\001\000\000\000\000y\2202\001\000\000\000\000_\0312\001\000\000\000\000<\3362\001\000\000\000\000\271\0312\001\000\000\000\000\274\0332\001\000\000\000\000\000\0332\001\000\000\000\000\256\0332\001\000\000\000\000\353\0322\001\000\000\000\000\252\0302\001\000\000\000\000\243\0302\001\000\000\000\000W\0332\001\000\000\000\000\005\0312\001\000\000\000\000\312\0332\001\000\000\000\0007\0322\001\000\000\000\000\004\0312\001\000\000\000\000\375\0302\001\000\000\000\000\215\0302\001\000\000\000\000\221\0322\001\000\000\000\000\004\0312\001\000\000\000\0001\0302\001\000\000\000\000\000\0332\001\000\000\000\000\027\0342\001\000\000\000\000m\0312\001\000\000\000\000\000\0332\001\000\000\000\000\362\0322\001\000\000\000\000>)3\001\000\000\000\000\"\0322\001\000\000\000\000X\0312\001\000\000\000\0000\2162\001\000\000\000\000\230\0322\001\000\000\000\000\221\0322\001\000\000\000\000+\0302\001\000\000\000\000\212\0322\001\000\000\000\000\215\0302\001\000\000\000\000\312\0332\001\000\000\000\000\274\0332\001\000\000\000\000\225\0302\001\000\000\000\0000\0322\001\000\000\000\000\265\0332\001\000\000\000\000\036\0342\001\000\000\000\000_\0312\001\000\000\000\000\237\0322\001\000\000\000\000\375\0302\001\000\000\000\000?\0302\001\000\000\000\000\330\0272\001\000\000\000\000\273R3\001\000\000\000\000s\0312\001\000\000\000\000\000\0332\001\000\000\000\0009\0302\001\000\000\000\000\237\0322\001\000\000\000\0000\0322\001\000\000\000\000[\0332\001\000\000\000\000\375\0302\001\000\000\000\000\353\0322\001\000\000\000\000\366\0302\001\000\000\000\000\375\0302\001\000\000\000\000U\0332\001\000\000\000\000\004\0312\001\000\000\000\000\324\0312\001\000\000\000\0000\0322\001\000\000\000\000\336\0272\001\000\000\000\000\252\0302\001\000\000\000\000\311\0272\001\000\000\000\000\252\0302\001\000\000\000\000X\0312\001\000\000\000\000>\2162\001\000\000\000\000KR3\001\000\000\000\000\354\0322\001\000\000\000\000\367\0302\001\000\000\000\000\316\0312\001\000\000\000\000\371\0322\001\000\000\000\000X\0312\001\000\000\000\0001\0322\001\000\000\000\000%\0342\001\000\000\000\000\243\0302\001\000\000\000\000?\0302\001\000\000\000\000\324\0312\001\000\000\000\000\300\0312\001\000\000\000\000\316\0312\001\000\000\000\000\212\0322\001\000\000\000\000\320\0272\001\000\000\000\000jw3\001\000\000\000\000\312\0332\001\000\000\000\000\274\0332\001\000\000\000\000\307\0312\001\000\000\000\0007\0322\001\000\000\000\000m\0312\001\000\000\000\000\366\0302\001\000\000\000\000_\0312\001\000\000\000\000\353\0322\001\000\000\000\000\340\2363\001\000\000\000\000X\0312\001\000\000\000\000[\0332\001\000\000\000\000%\0342\001\000\000\000\000\203\0322\001\000\000\000\000\325\0312\001\000\000\000\000\366\0302\001\000\000\000\000\325\0312\001\000\000\000\000\303\0332\001\000\000\000\000\320\0272\001\000\000\000\000\330>2\001\000\000\000\000)\0322\001\000\000\000\0001\0302\001\000\000\000\000\013\0312\001\000\000\000\000\013\0312\001\000\000\000\000%\0342\001\000\000\000\000\256\0332\001\000\000\000\0006\0302\001\000\000\000\000\353\0322\001\000\000\000\000\215\0302\001\000\000\000\0007\0322\001\000\000\000\000\"\0322\001\000\000\000\000\221A2\001\000\000\000\000QR3\001\000\000\000\000%\3352\001\000\000\000\000\000\2172\001\000\000\000\000\344@2\001\000\000\000\000EA2\001\000\000\000\000e@2\001\000\000\000\000{@2\001\000\000\000\0007A2\001\000\000\000\000=A2\001\000\000\000\0009?2\001\000\000\000\000 \2642\001\000\000\000\000\275B2\001\000\000\000\000\022Q3\001\000\000\000\000\252?2\001\000\000\000\000\316@2\001\000\000\000\000F?2\001\000\000\000\000,C2\001\000\000\000\0002C2\001\000\000\000\000jB2\001\000\000\000\000\014@2\001\000\000\000\000\312B2\001\000\000\000\000\372\2162\001\000\000\000\000\000B2\001\000\000\000\000\331B2\001\000\000\000\000\304B2\001\000\000\000\000@?2\001\000\000\000\000,C2\001\000\000\000\000{@2\001\000\000\000\000\000B2\001\000\000\000\000F?2\001\000\000\000\000\326@2\001\000\000\000\000jB2\001\000\000\000\000\335@2\001\000\000\000\000\237A2\001\000\000\000\000\001B2\001\000\000\000\000\316@2\001\000\000\000\000\355>2\001\000\000\000\000n@2\001\000\000\000\000\271?2\001\000\000\000\000o\2403\001\000\000\000\000T?2\001\000\000\000\000\237A2\001\000\000\000\000EA2\001\000\000\000\000\312B2\001\000\000\000\000\262?2\001\000\000\000\000\005@2\001\000\000\000\000@?2\001\000\000\000\000\337>2\001\000\000\000\000\372A2\001\000\000\000\000\007B2\001\000\000\000\000,\2202\001\000\000\000\000[B2\001\000\000\000\000N?2\001\000\000\000\000\001B2\001\000\000\000\000\023@2\001\000\000\000\000\221A2\001\000\000\000\000\002\2662\001\000\000\000\000T?2\001\000\000\000\000\256A2\001\000\000\000\0007A2\001\000\000\000\000\030\3352\001\000\000\000\000\346\3332\001\000\000\000\000\010B2\001\000\000\000\0002C2\001\000\000\000\000jB2\001\000\000\000\000\023@2\001\000\000\000\000\032@2\001\000\000\000\000\230A2\001\000\000\000\000\314\2363\001\000\000\000\0003C2\001\000\000\000\000o\3372\001\000\000\000\000^\2212\001\000\000\000\000=A2\001\000\000\000\0008C2\001\000\000\000\000G?2\001\000\000\000\000[B2\001\000\000\000\000\007S3\001\000\000\000\000\355>2\001\000\000\000\000\341\2363\001\000\000\000\000\337>2\001\000\000\000\000\256A2\001\000\000\000\000\262?2\001\000\000\000\000\032@2\001\000\000\000\000\256A2\001\000\000\000\000\322\0033\001\000\000\000\000\230\0023\001\000\000\000\000\014@2\001\000\000\000\000{@2\001\000\000\000\000,C2\001\000\000\000\000\331B2\001\000\000\000\000\252?2\001\000\000\000\000&C2\001\000\000\000\000\355>2\001\000\000\000\000@?2\001\000\000\000\000\235?2\001\000\000\000\000\312B2\001\000\000\000\000\335g2\001\000\000\000\000\336>2\001\000\000\000\000\231A2\001\000\000\000\000\023@2\001\000\000\000\000\221A2\001\000\000\000\000T?2\001\000\000\000\000\316@2\001\000\000\000\0001\2413\001\000\000\000\000\331\2363\001\000\000\000\000(g2\001\000\000\000\000S)3\001\000\000\000\000EA2\001\000\000\000\0001A2\001\000\000\000\000\313\2662\001\000\000\000\000\262?2\001\000\000\000\000\246A2\001\000\000\000\000\246A2\001\000\000\000\000cB2\001\000\000\000\000;C2\001\000\000\000\000\005@2\001\000\000\000\000\010B2\001\000\000\000\000\003f2\001\000\000\000\000G?2\001\000\000\000\000#\2413\001\000\000\000\000F?2\001\000\000\000\000\031@2\001\000\000\000\000\271?2\001\000\000\000\000Vf2\001\000\000\000\000\304B2\001\000\000\000\000\246A2\001\000\000\000\000;C2\001\000\000\000\000;C2\001\000\000\000\000\322B2\001\000\000\000\000\237A2\001\000\000\000\000\263)3\001\000\000\000\000\271?2\001\000\000\000\000EA2\001\000\000\000\000wz3\001\000\000\000\000\330>2\001\000\000\000\000cB2\001\000\000\000\000\304B2\001\000\000\000\0001A2\001\000\000\000\000\237A2\001\000\000\000\000\014@2\001\000\000\000\000\256A2\001\000\000\000\000\331B2\001\000\000\000\000\262?2\001\000\000\000\000\000B2\001\000\000\000\000\256A2\001\000\000\000\000g@2\001\000\000\000\000\275B2\001\000\000\000\000\253?2\001\000\000\000\000\312B2\001\000\000\000\000u@2\001\000\000\000\000=A2\001\000\000\000\000\321B2\001\000\000\000\000\023@2\001\000\000\000\000cB2\001\000\000\000\000FA2\001\000\000\000\000[B2\001\000\000\000\000gS3\001\000\000\000\000\330S3\001\000\000\000\000\372A2\001\000\000\000\000\023@2\001\000\000\000\000\335@2\001\000\000\000\000n@2\001\000\000\000\000\203@2\001\000\000\000\000&C2\001\000\000\000\000\372A2\001\000\000\000\000\203@2\001\000\000\000\000\237A2\001\000\000\000\0009?2\001\000\000\000\0009?2\001\000\000\000\000\326@2\001\000\000\000\000\372A2\001\000\000\000\000\235?2\001\000\000\000\000\005@2\001\000\000\000\000?A2\001\000\000\000\000\262?2\001\000\000\000\000\337>2\001\000\000\000\000\326@2\001\000\000\000\000\252?2\001\000\000\000\000\237A2\001\000\000\000\000qB2\001\000\000\000\000\271?2\001\000\000\000\000N?2\001\000\000\000\000\322B2\001\000\000\000\000\346>2\001\000\000\000\000\335@2\001\000\000\000\000\014@2\001\000\000\000\000\345e2\001\000\000\000\000[B2\001\000\000\000\000\344@2\001\000\000\000\000\275B2\001\000\000\000\000\203@2\001\000\000\000\000\222A2\001\000\000\000\000qB2\001\000\000\000\000\005@2\001\000\000\000\000\330>2\001\000\000\000\0007A2\001\000\000\000\000\322B2\001\000\000\000\000\246A2\001\000\000\000\000\256A2\001\000\000\000\000\356e2\001\000\000\000\000u@2\001\000\000\000\000Mh2\001\000\000\000\000Vf2\001\000\000\000\000\200\2363\001\000\000\000\000\335g2\001\000\000\000\000\276\3342\001\000\000\000\000\007i2\001\000\000\000\0003j2\001\000\000\000\000\353g2\001\000\000\000\000y*3\001\000\000\000\000M\2652\001\000\000\000\000.g2\001\000\000\000\000\212g2\001\000\000\000\000Zh2\001\000\000\000\000\217\0043\001\000\000\000\000\246h2\001\000\000\000\000\356e2\001\000\000\000\000\010i2\001\000\000\000\000\007S3\001\000\000\000\000>h2\001\000\000\000\000Uw3\001\000\000\000\000_\0053\001\000\000\000\000\031g2\001\000\000\000\000\331i2\001\000\000\000\000qi2\001\000\000\000\000\321i2\001\000\000\000\000[h2\001\000\000\000\000\177i2\001\000\000\000\000Th2\001\000\000\000\000Vf2\001\000\000\000\000\247h2\001\000\000\000\000\356e2\001\000\000\000\000Fh2\001\000\000\000\000\002f2\001\000\000\000\000\203g2\001\000\000\000\000\246h2\001\000\000\000\000\017i2\001\000\000\000\000Hj2\001\000\000\000\000c\2662\001\000\000\000\000B\2212\001\000\000\000\000:j2\001\000\000\000\000\347e2\001\000\000\000\000\331i2\001\000\000\000\000\271f2\001\000\000\000\000Aj2\001\000\000\000\000Mf2\001\000\000\000\0007\0023\001\000\000\000\000Aj2\001\000\000\000\000\002\2662\001\000\000\000\000\335g2\001\000\000\000\000\023g2\001\000\000\000\000df2\001\000\000\000\000df2\001\000\000\000\000U\3342\001\000\000\000\000:j2\001\000\000\000\000\023g2\001\000\000\000\000\362g2\001\000\000\000\000\300f2\001\000\000\000\000|g2\001\000\000\000\000ji2\001\000\000\000\000\347i2\001\000\000\000\000.g2\001\000\000\000\000\365e2\001\000\000\000\000Mh2\001\000\000\000\000\221g2\001\000\000\000\000\300f2\001\000\000\000\000Vf2\001\000\000\000\000\017i2\001\000\000\000\000\340i2\001\000\000\000\000.g2\001\000\000\000\000ki2\001\000\000\000\000\177i2\001\000\000\000\000\365e2\001\000\000\000\000\227\2373\001\000\000\000\000\374e2\001\000\000\000\000\206i2\001\000\000\000\000\003f2\001\000\000\000\000xi2\001\000\000\000\000\236\0023\001\000\000\000\000\307f2\001\000\000\000\000Nj2\001\000\000\000\000Bj2\001\000\000\000\000\256h2\001\000\000\000\000\035i2\001\000\000\000\000\002f2\001\000\000\000\000\267\3342\001\000\000\000\000\344g2\001\000\000\000\000Mh2\001\000\000\000\000\347e2\001\000\000\000\000\265h2\001\000\000\000\000\374e2\001\000\000\000\000\265h2\001\000\000\000\0003j2\001\000\000\000\000\221g2\001\000\000\000\000\031g2\001\000\000\000\000!g2\001\000\000\000\000Mh2\001\000\000\000\000.g2\001\000\000\000\000Mf2\001\000\000\000\000\262f2\001\000\000\000\000\340i2\001\000\000\000\000xi2\001\000\000\000\000>h2\001\000\000\000\000\255h2\001\000\000\000\000\262f2\001\000\000\000\000ji2\001\000\000\000\000\320\2403\001\000\000\000\000\203g2\001\000\000\000\000\003f2\001\000\000\000\000!g2\001\000\000\000\000Vf2\001\000\000\000\000]f2\001\000\000\000\000\017i2\001\000\000\000\000\023g2\001\000\000\000\000\031g2\001\000\000\000\000\026i2\001\000\000\000\000#-3\001\000\000\000\000\340i2\001\000\000\000\000\017i2\001\000\000\000\000\031g2\001\000\000\000\000\353g2\001\000\000\000\000\307f2\001\000\000\000\000Vf2\001\000\000\000\000\247h2\001\000\000\000\000Nf2\001\000\000\000\000xi2\001\000\000\000\000\262f2\001\000\000\000\000\177i2\001\000\000\000\000Hj2\001\000\000\000\000\211\0063\001\000\000\000\000\206i2\001\000\000\000\000\026i2\001\000\000\000\000[P3\001\000\000\000\000\253+3\001\000\000\000\000|g2\001\000\000\000\000ug2\001\000\000\000\000\307f2\001\000\000\000\000\212g2\001\000\000\000\000\031g2\001\000\000\000\000\232T3\001\000\000\000\000\263\3362\001\000\000\000\000\320,3\001\000\000\000\000\023g2\001\000\000\000\000df2\001\000\000\000\000\300f2\001\000\000\000\000\010i2\001\000\000\000\000\271f2\001\000\000\000\000xi2\001\000\000\000\000\356e2\001\000\000\000\000\177i2\001\000\000\000\000\356e2\001\000\000\000\000!g2\001\000\000\000\000\353g2\001\000\000\000\000qi2\001\000\000\000\000\267{3\001\000\000\000\000\365e2\001\000\000\000\000\331i2\001\000\000\000\000Fh2\001\000\000\000\000Th2\001\000\000\000\000\026i2\001\000\000\000\000qi2\001\000\000\000\000\374e2\001\000\000\000\000\206i2\001\000\000\000\000ji2\001\000\000\000\000\262f2\001\000\000\000\000ji2\001\000\000\000\000\221g2\001\000\000\000\000\274h2\001\000\000\000\000\035i2\001\000\000\000\000]f2\001\000\000\000\000:j2\001\000\000\000\000]f2\001\000\000\000\000df2\001\000\000\000\000\344g2\001\000\000\000\000xi2\001\000\000\000\000xi2\001\000\000\000\000\320\2403\001\000\000\000\000\311\2403\001\000\000\000\000df2\001\000\000\000\000|g2\001\000\000\000\000]f2\001\000\000\000\000\265h2\001\000\000\000\000\331i2\001\000\000\000\000\256h2\001\000\000\000\000\344g2\001\000\000\000\000xi2\001\000\000\000\000\023g2\001\000\000\000\000\362g2\001\000\000\000\000\031g2\001\000\000\000\000\206i2\001\000\000\000\000\212g2\001\000\000\000\000\331i2\001\000\000\000\000\362g2\001\000\000\000\000\300f2\001\000\000\000\000\362g2\001\000\000\000\000Th2\001\000\000\000\000\035i2\001\000\000\000\000\221g2\001\000\000\000\000qi2\001\000\000\000\000\347e2\001\000\000\000\000>h2\001\000\000\000\000\271f2\001\000\000\000\000Vf2\001\000\000\000\000Vf2\001\000\000\000\000>h2\001\000\000\000\000\221g2\001\000\000\000\000;j2\001\000\000\000\000\300f2\001\000\000\000\000?h2\001\000\000\000\000\307f2\001\000\000\000\000i\2172\001\000\000\000\000\022Q3\001\000\000\000\000\021*3\001\000\000\000\000\017i2\001\000\000\000\0004j2\001\000\000\000\000\262f2\001\000\000\000\000\307f2\001\000\000\000\000\032g2\001\000\000\000\000.g2\001\000\000\000\000\206i2\001\000\000\000\000|g2\001\000\000\000\000Th2\001\000\000\000\000\206i2\001\000\000\000\000b\2172\001\000\000\000\000*\2413\001\000\000\000\000i\2172\001\000\000\000\000L)3\001\000\000\000\000Q\2212\001\000\000\000\000\'Q3\001\000\000\000\000(\2672\001\000\000\000\000\231\2162\001\000\000\000\000\363\2162\001\000\000\000\000\006,3\001\000\000\000\000[\2172\001\000\000\000\000\003\2152\001\000\000\000\000\n\2152\001\000\000\000\000\266\2172\001\000\000\000\000\216\2202\001\000\000\000\000W\2212\001\000\000\000\000\340z3\001\000\000\000\000>\2162\001\000\000\000\000\354\2162\001\000\000\000\000\035\2202\001\000\000\000\000\"\2162\001\000\000\000\000\n\2152\001\000\000\000\000d\2152\001\000\000\000\000,\2202\001\000\000\000\000\n\2152\001\000\000\000\000\327\2403\001\000\000\000\000y\2363\001\000\000\000\000Z\2403\001\000\000\000\000d\2152\001\000\000\000\000\366\2202\001\000\000\000\000\347\2202\001\000\000\000\000>\2162\001\000\000\000\000=\2162\001\000\000\000\000u\3372\001\000\000\000\000W\2212\001\000\000\000\000\317\2152\001\000\000\000\000\213\2162\001\000\000\000\0000\2162\001\000\000\000\000\253\2373\001\000\000\000\000\246R3\001\000\000\000\000\357\2202\001\000\000\000\000\374\2142\001\000\000\000\000d\2152\001\000\000\000\000\274\2172\001\000\000\000\000\207\2202\001\000\000\000\000J\2212\001\000\000\000\000y\2202\001\000\000\000\000\224\2202\001\000\000\000\000\222\2162\001\000\000\000\000\317\2152\001\000\000\000\000\307\2152\001\000\000\000\000\"\2162\001\000\000\000\0007\2162\001\000\000\000\000\372\2162\001\000\000\000\000\200\2202\001\000\000\000\000\304w3\001\000\000\000\000k\2152\001\000\000\000\000\366\2202\001\000\000\000\000\301\2152\001\000\000\000\000\021\2152\001\000\000\000\000\036\2202\001\000\000\000\000\n\2152\001\000\000\000\000\304\2172\001\000\000\000\000\274\2172\001\000\000\000\000\326\2152\001\000\000\000\000U\2172\001\000\000\000\000d\2152\001\000\000\000\000\266\2172\001\000\000\000\000\310\2152\001\000\000\000\000W\2212\001\000\000\000\000k\2152\001\000\000\000\000\363\2162\001\000\000\000\000\224\2202\001\000\000\000\000\035\2202\001\000\000\000\0008\2652\001\000\000\000\000\027\2202\001\000\000\000\000\301\2152\001\000\000\000\000%\2202\001\000\000\000\000\326\2152\001\000\000\000\000y\2202\001\000\000\000\000U\2172\001\000\000\000\000\200\2202\001\000\000\000\000\363\2162\001\000\000\000\000\304\2172\001\000\000\000\000\274\2172\001\000\000\000\000\310\2152\001\000\000\000\000r\2152\001\000\000\000\000]\2152\001\000\000\000\000\374\2142\001\000\000\000\000[\2172\001\000\000\000\000\231\2162\001\000\000\000\000)\2162\001\000\000\000\000\207\2202\001\000\000\000\000k\2152\001\000\000\000\000\310\2152\001\000\000\000\000\313\2172\001\000\000\000\000\351\3352\001\000\000\000\000\n\2152\001\000\000\000\000\326\2152\001\000\000\000\000X\2212\001\000\000\000\000\216\2202\001\000\000\000\000\320\2403\001\000\000\000\000\235\2373\001\000\000\000\000Zy3\001\000\000\000\000>\2162\001\000\000\000\000,\2202\001\000\000\000\000\341\2202\001\000\000\000\000]\2152\001\000\000\000\000\317\2152\001\000\000\000\000\275\2172\001\000\000\000\000\000\2172\001\000\000\000\000\224\2202\001\000\000\000\000b\2172\001\000\000\000\000\224\2202\001\000\000\000\0000\2162\001\000\000\000\000\357\2202\001\000\000\000\000>\2162\001\000\000\000\000\304\2172\001\000\000\000\000\036\2202\001\000\000\000\000.\2202\001\000\000\000\000\035\2202\001\000\000\000\0006\2373\001\000\000\000\000\010\2662\001\000\000\000\000\"\2162\001\000\000\000\000Q\2212\001\000\000\000\000\021\2152\001\000\000\000\000\035\2202\001\000\000\000\000\"\2162\001\000\000\000\000\021*3\001\000\000\000\0001\2652\001\000\000\000\000G\3342\001\000\000\000\000\350\2202\001\000\000\000\000%\2202\001\000\000\000\000)\2162\001\000\000\000\000\027\2202\001\000\000\000\000\216\2202\001\000\000\000\000\304\2172\001\000\000\000\000)\2162\001\000\000\000\000i\2172\001\000\000\000\000\313\2172\001\000\000\000\000\372\2162\001\000\000\000\000\027\2202\001\000\000\000\000\274\2172\001\000\000\000\000/\2162\001\000\000\000\000C\2212\001\000\000\000\000\301\2152\001\000\000\000\000k\2152\001\000\000\000\000\301\2152\001\000\000\000\000\341\2202\001\000\000\000\000\341\2202\001\000\000\000\0000\2162\001\000\000\000\000)\2162\001\000\000\000\000\320S3\001\000\000\000\000\301,3\001\000\000\000\0007\2162\001\000\000\000\000\310\2152\001\000\000\000\000\374\2142\001\000\000\000\000\372\2162\001\000\000\000\0000\2162\001\000\000\000\000r\2152\001\000\000\000\000\326\2152\001\000\000\000\000\251\3342\001\000\000\000\000)\2162\001\000\000\000\000\222\2162\001\000\000\000\000\003\2152\001\000\000\000\000\027\2202\001\000\000\000\000\313\2172\001\000\000\000\000\363\2162\001\000\000\000\000\350\2202\001\000\000\000\000\374\2142\001\000\000\000\000\222\2162\001\000\000\000\000\222\2162\001\000\000\000\000k\2152\001\000\000\000\000M\2172\001\000\000\000\000\216\2202\001\000\000\000\000J\2212\001\000\000\000\000Oj2\001\000\000\000\000]\2152\001\000\000\000\000\216\2202\001\000\000\000\000[\2172\001\000\000\000\000\\\2172\001\000\000\000\000\372\2162\001\000\000\000\000\301\2152\001\000\000\000\000\372\2162\001\000\000\000\0007\2162\001\000\000\000\000\222\2162\001\000\000\000\000,\2202\001\000\000\000\000\205\2162\001\000\000\000\000j\2172\001\000\000\000\000,\2202\001\000\000\000\000\252{3\001\000\000\000\000\224\2202\001\000\000\000\000\225\2202\001\000\000\000\000\021\2152\001\000\000\000\000@T3\001\000\000\000\000\013\2642\001\000\000\000\000\357\2202\001\000\000\000\000J\2212\001\000\000\000\000Z\2403\001\000\000\000\000\366\2202\001\000\000\000\000\024S3\001\000\000\000\000\266\2172\001\000\000\000\000X\2212\001\000\000\000\000\001\2172\001\000\000\000\000d\2152\001\000\000\000\000\213\2162\001\000\000\000\000U\2172\001\000\000\000\000y\2202\001\000\000\000\000\354\2162\001\000\000\000\000k\2152\001\000\000\000\000\200\2202\001\000\000\000\000\207\2202\001\000\000\000\000\304\2662\001\000\000\000\000\321S3\001\000\000\000\000q\2662\001\000\000\000\000j\2662\001\000\000\000\000\010\2662\001\000\000\000\000 \2642\001\000\000\000\000\372\2652\001\000\000\000\000y\2662\001\000\000\000\000\244\2672\001\000\000\000\0004\2672\001\000\000\000\000\t\0033\001\000\000\000\0001\2652\001\000\000\000\000\263R3\001\000\000\000\000\250\2652\001\000\000\000\000_\2702\001\000\000\000\000\241\2652\001\000\000\000\000\026z3\001\000\000\000\000\020\2662\001\000\000\000\000]\2662\001\000\000\000\000\320\2642\001\000\000\000\000\366\2672\001\000\000\000\000Q\2702\001\000\000\000\000\257\2652\001\000\000\000\000s\2642\001\000\000\000\0004\2672\001\000\000\000\000f\2702\001\000\000\000\000\305\2662\001\000\000\000\000L\2652\001\000\000\000\000\323\2662\001\000\000\000\000f\2702\001\000\000\000\000\336\2642\001\000\000\000\000\226\2672\001\000\000\000\0004\2672\001\000\000\000\000X\2702\001\000\000\000\000\013\2642\001\000\000\000\000?\2652\001\000\000\000\000X\2702\001\000\000\000\000-\2672\001\000\000\000\000`,3\001\000\000\000\0004\2672\001\000\000\000\000]\2662\001\000\000\000\000B\2672\001\000\000\000\000z\2642\001\000\000\000\000Y\2702\001\000\000\000\000\004\2702\001\000\000\000\000x\2662\001\000\000\000\000\002\2662\001\000\000\000\000\031\2642\001\000\000\000\000q\2662\001\000\000\000\0001-3\001\000\000\000\000s\2642\001\000\000\000\000\341\0043\001\000\000\000\000_\2702\001\000\000\000\000x\2662\001\000\000\000\000q\2662\001\000\000\000\000\004\2702\001\000\000\000\000\345\2642\001\000\000\000\0008\2652\001\000\000\000\000\216\2672\001\000\000\000\0004\2672\001\000\000\000\000q\2662\001\000\000\000\000m\2702\001\000\000\000\000\376\2672\001\000\000\000\000\341\0043\001\000\000\000\000\332\2662\001\000\000\000\000B\2672\001\000\000\000\000\360\2672\001\000\000\000\000F\2652\001\000\000\000\000\216\2672\001\000\000\000\000\366\2672\001\000\000\000\000\245\2373\001\000\000\000\000\021\2642\001\000\000\000\000\301\0053\001\000\000\000\000\235\2672\001\000\000\000\000\254\3362\001\000\000\000\000Q\2702\001\000\000\000\000\021\2642\001\000\000\000\000\024S3\001\000\000\000\000J\0053\001\000\000\000\000\323\2662\001\000\000\000\000s\2642\001\000\000\000\000\327\2642\001\000\000\000\000?\2652\001\000\000\000\000\020\2662\001\000\000\000\000\244\2672\001\000\000\000\000\002\2662\001\000\000\000\000\332\2662\001\000\000\000\000s\2642\001\000\000\000\000-\2672\001\000\000\000\000x\2662\001\000\000\000\000\235\2672\001\000\000\000\000g\2702\001\000\000\000\000\327\2642\001\000\000\000\000\323\2662\001\000\000\000\000\201\2642\001\000\000\000\000sQ3\001\000\000\000\000f\2702\001\000\000\000\000\201\2642\001\000\000\000\000\313\2662\001\000\000\000\000\025S3\001\000\000\000\000 \2642\001\000\000\000\000\320\2642\001\000\000\000\000\372\2652\001\000\000\000\000\022\2642\001\000\000\000\000F\2652\001\000\000\000\000l\2642\001\000\000\000\0004\2672\001\000\000\000\000]\2662\001\000\000\000\000&\2672\001\000\000\000\000\336\2642\001\000\000\000\000\022\2642\001\000\000\000\000F\2652\001\000\000\000\000s\2642\001\000\000\000\000\336\2642\001\000\000\000\000m\2702\001\000\000\000\000\313\2662\001\000\000\000\000\376\2672\001\000\000\000\000\226\2672\001\000\000\000\000\210\0043\001\000\000\000\000\010\2662\001\000\000\000\000&\2672\001\000\000\000\000\345\2642\001\000\000\000\000\323\2662\001\000\000\000\000&\2672\001\000\000\000\000G{3\001\000\000\000\000M\2652\001\000\000\000\000\031\2642\001\000\000\000\000 \2642\001\000\000\000\000\005\2702\001\000\000\000\0004\2672\001\000\000\000\000\320\2642\001\000\000\000\000\345\2642\001\000\000\000\000\031\2642\001\000\000\000\000Q\2702\001\000\000\000\000\257\2652\001\000\000\000\000\327\2642\001\000\000\000\000]\2662\001\000\000\000\000-\2672\001\000\000\000\000\235\2672\001\000\000\000\000\332\2662\001\000\000\000\000\031\2642\001\000\000\000\000\360\2672\001\000\000\000\000\017\2662\001\000\000\000\000X\2702\001\000\000\000\000\201\2642\001\000\000\000\000&\2672\001\000\000\000\000\004\2702\001\000\000\000\000\360\2672\001\000\000\000\000_\2702\001\000\000\000\000\327\2642\001\000\000\000\000\327\2642\001\000\000\000\000c\2662\001\000\000\000\000\235\2672\001\000\000\000\000\253\2373\001\000\000\000\000d\2662\001\000\000\000\000F\2652\001\000\000\000\0004\2672\001\000\000\000\000z\2642\001\000\000\000\000\251\2652\001\000\000\000\000\244\2672\001\000\000\000\000\022\2642\001\000\000\000\000\314\2662\001\000\000\000\0008\2652\001\000\000\000\000\274P3\001\000\000\000\000\327\2642\001\000\000\000\000\367\2672\001\000\000\000\000?\2652\001\000\000\000\000\274P3\001\000\000\000\000+z3\001\000\000\000\000\323\2662\001\000\000\000\000&\2672\001\000\000\000\000\345\2642\001\000\000\000\000\201\2642\001\000\000\000\000\031\3332\001\000\000\000\000\031\2642\001\000\000\000\000\257\2652\001\000\000\000\000\367\2672\001\000\000\000\000\357\2672\001\000\000\000\000\t\2662\001\000\000\000\000y\2662\001\000\000\000\000\201\2642\001\000\000\000\0008\2652\001\000\000\000\000\002\2662\001\000\000\000\000?\2652\001\000\000\000\000 \2642\001\000\000\000\000]\2662\001\000\000\000\000\345\2642\001\000\000\000\000\244\2672\001\000\000\000\000\022\2642\001\000\000\000\000R\2702\001\000\000\000\000\332\2662\001\000\000\000\000l\2642\001\000\000\000\000\257\2652\001\000\000\000\000?\2652\001\000\000\000\000 \2642\001\000\000\000\000\332\3352\001\000\000\000\000\250\3342\001\000\000\000\000\254\3362\001\000\000\000\000o\3372\001\000\000\000\000/\3332\001\000\000\000\000J\3362\001\000\000\000\000y\3352\001\000\000\000\000\244\3362\001\000\000\000\000\267\3342\001\000\000\000\000\200\3352\001\000\000\000\000\200\3352\001\000\000\000\000a\3372\001\000\000\000\000\341\3352\001\000\000\000\000\373\3332\001\000\000\000\000\235x3\001\000\000\000\000\n\3352\001\000\000\000\000Q\3362\001\000\000\000\000;\3362\001\000\000\000\000\332\3352\001\000\000\000\000-\0043\001\000\000\000\000\324\3352\001\000\000\000\000\210\3352\001\000\000\000\000/\3332\001\000\000\000\000\\\3342\001\000\000\000\000\211\3332\001\000\000\000\000T\3342\001\000\000\000\000u\3372\001\000\000\000\000\032\3372\001\000\000\000\000\r,3\001\000\000\000\000\006\3372\001\000\000\000\000\250\3342\001\000\000\000\000\024\3372\001\000\000\000\000N\3342\001\000\000\000\000\254\3362\001\000\000\000\000\361+3\001\000\000\000\000\333\3352\001\000\000\000\000\202\3332\001\000\000\000\000;\3362\001\000\000\000\000!\3332\001\000\000\000\000\250\3342\001\000\000\000\000\211\3332\001\000\000\000\000\355\3332\001\000\000\000\000g\3372\001\000\000\000\000\021\3352\001\000\000\000\000\357\3352\001\000\000\000\000\037\3352\001\000\000\000\000;\3362\001\000\000\000\000s\3352\001\000\000\000\000\244\3362\001\000\000\000\000\220\3332\001\000\000\000\000\243{3\001\000\000\000\000\323\3352\001\000\000\000\000\r\3372\001\000\000\000\000\025\3372\001\000\000\000\000\263\3362\001\000\000\000\000\357\3352\001\000\000\000\000\006\3372\001\000\000\000\000;\3362\001\000\000\000\000\210\3352\001\000\000\000\000\030\3352\001\000\000\000\000Q\3362\001\000\000\000\000&Q3\001\000\000\000\000\200\3352\001\000\000\000\000\202\3332\001\000\000\000\000\342\3352\001\000\000\000\000!\3332\001\000\000\000\000\021\3352\001\000\000\000\000\337\3332\001\000\000\000\000\006\3372\001\000\000\000\000\346\3332\001\000\000\000\000\364\3332\001\000\000\000\000\355\3332\001\000\000\000\000\376\3362\001\000\000\000\000\251\3342\001\000\000\000\000\030\3352\001\000\000\000\000T\3342\001\000\000\000\000\364\3332\001\000\000\000\000v\3372\001\000\000\000\000[\3342\001\000\000\000\000\373\3332\001\000\000\000\000J\3362\001\000\000\000\000\220\3332\001\000\000\000\000N\3342\001\000\000\000\000v\3372\001\000\000\000\000\030\3352\001\000\000\000\000\236\3362\001\000\000\000\000\035z3\001\000\000\000\000\355\3332\001\000\000\000\000Q\3362\001\000\000\000\000<\3362\001\000\000\000\000\200\3352\001\000\000\000\000\211\3332\001\000\000\000\000N\3342\001\000\000\000\000J\3362\001\000\000\000\000Q\3362\001\000\000\000\000G\3342\001\000\000\000\000\377\3362\001\000\000\000\000}\3372\001\000\000\000\000\210\3352\001\000\000\000\000\024\3372\001\000\000\000\000T\3342\001\000\000\000\000\355\3332\001\000\000\000\000bw3\001\000\000\000\000\251\3342\001\000\000\000\000G\3342\001\000\000\000\000\036\3352\001\000\000\000\000\341\3352\001\000\000\000\000\030\3352\001\000\000\000\000\245\3362\001\000\000\000\000\355\3332\001\000\000\000\000\235x3\001\000\000\000\000\325\3352\001\000\000\000\000\021\3352\001\000\000\000\000C\3362\001\000\000\000\000\r\3372\001\000\000\000\000\260\3342\001\000\000\000\000\211\3332\001\000\000\000\000\263\3362\001\000\000\000\000!\3332\001\000\000\000\000\376\3362\001\000\000\000\000\267\3342\001\000\000\000\000\377\3362\001\000\000\000\000\364\3332\001\000\000\000\000\373\3332\001\000\000\000\000\351\3352\001\000\000\000\000\031\3332\001\000\000\000\000\373\3332\001\000\000\000\000\201\3352\001\000\000\000\000\337\3332\001\000\000\000\000Q\0053\001\000\000\000\000g\3372\001\000\000\000\000\236\3362\001\000\000\000\000G\3342\001\000\000\000\000\276\3342\001\000\000\000\000g\3372\001\000\000\000\000<\3362\001\000\000\000\000\351\3352\001\000\000\000\000\311y3\001\000\000\000\000s\3352\001\000\000\000\000\355\3332\001\000\000\000\000T\3342\001\000\000\000\000\250\3342\001\000\000\000\000\351\3352\001\000\000\000\000\216Q3\001\000\000\000\000\r\3372\001\000\000\000\000\377\3362\001\000\000\000\000\263\3362\001\000\000\000\000\037\3352\001\000\000\000\000\037\3352\001\000\000\000\000\021\3352\001\000\000\000\000(\3332\001\000\000\000\000\024\3372\001\000\000\000\000\351\3352\001\000\000\000\000<\3362\001\000\000\000\000\220\3332\001\000\000\000\000!\3332\001\000\000\000\000\\\3342\001\000\000\000\000\263\3362\001\000\000\000\000!\3332\001\000\000\000\000\376\3362\001\000\000\000\000\364\3332\001\000\000\000\000(\3332\001\000\000\000\000\220\3332\001\000\000\000\000\351\3352\001\000\000\000\000\r\3372\001\000\000\000\000/\3332\001\000\000\000\000\341\3352\001\000\000\000\000\337\3332\001\000\000\000\000\n\3352\001\000\000\000\000\377\3362\001\000\000\000\000\r\3372\001\000\000\000\000s\3352\001\000\000\000\000\006\3372\001\000\000\000\000\251\3342\001\000\000\000\000\364\3332\001\000\000\000\000\210\3352\001\000\000\000\000\251\3342\001\000\000\000\000vS3\001\000\000\000\000\245\3362\001\000\000\000\000v\3372\001\000\000\000\000\220\3332\001\000\000\000\000z\3352\001\000\000\000\000\211\3332\001\000\000\000\000\037\3352\001\000\000\000\000\276\3342\001\000\000\000\000\n\3352\001\000\000\000\000\333\3352\001\000\000\000\000\254\3362\001\000\000\000\000z\3332\001\000\000\000\000(\3332\001\000\000\000\000\r\3372\001\000\000\000\000\211\3332\001\000\000\000\000N\3342\001\000\000\000\000\245\3362\001\000\000\000\000\211\3332\001\000\000\000\000\r\3372\001\000\000\000\000s\3352\001\000\000\000\000\225\0043\001\000\000\000\000aP3\001\000\000\000\000Q\0053\001\000\000\000\000\227x3\001\000\000\000\000j\0033\001\000\000\000\000\307\0053\001\000\000\000\000\350\0043\001\000\000\000\0004\0043\001\000\000\000\000\212\0023\001\000\000\000\000\305\0033\001\000\000\000\000\201\0043\001\000\000\000\000\002\0033\001\000\000\000\0006\0023\001\000\000\000\000\314\0033\001\000\000\000\000)\0063\001\000\000\000\000\024\0063\001\000\000\000\000\033\0063\001\000\000\000\000\036\0043\001\000\000\000\000}\0063\001\000\000\000\000\364\0023\001\000\000\000\000\366\0043\001\000\000\000\000\302\0053\001\000\000\000\000[\0033\001\000\000\000\000\261{3\001\000\000\000\000v\0063\001\000\000\000\000\203\0063\001\000\000\000\000\245\0023\001\000\000\000\000\225\0043\001\000\000\000\000\375\0043\001\000\000\000\000\230\0023\001\000\000\000\000\272\0053\001\000\000\000\000\322\0033\001\000\000\000\000i\0033\001\000\000\000\000X\0053\001\000\000\000\000[\0033\001\000\000\000\000_\0053\001\000\000\000\000\357\0043\001\000\000\000\000\357\0043\001\000\000\000\000\305\0033\001\000\000\000\000\263\0053\001\000\000\000\000J\0053\001\000\000\000\000\203\0063\001\000\000\000\000\t\0033\001\000\000\000\000)\0023\001\000\000\000\000\"\0063\001\000\000\000\000\036\0043\001\000\000\000\000\253\0053\001\000\000\000\000\245\0023\001\000\000\000\000\364\0023\001\000\000\000\000\350\0043\001\000\000\000\000\322\0033\001\000\000\000\000\203\0063\001\000\000\000\000-\0043\001\000\000\000\000U\0033\001\000\000\000\000J\0053\001\000\000\000\000\236\0023\001\000\000\000\000\n*3\001\000\000\000\000\276\0033\001\000\000\000\000\263\0053\001\000\000\000\000\217\0043\001\000\000\000\000-\0043\001\000\000\000\000&\0043\001\000\000\000\000/\0023\001\000\000\000\000\210\0043\001\000\000\000\000\373\0023\001\000\000\000\000\360\2672\001\000\000\000\000\201\0043\001\000\000\000\000\376\0043\001\000\000\000\000)\0063\001\000\000\000\000Q\0053\001\000\000\000\000\"\0063\001\000\000\000\000Y\2403\001\000\000\000\000-+3\001\000\000\000\000\203\0063\001\000\000\000\000\201\0043\001\000\000\000\000\350\0043\001\000\000\000\000\267\0033\001\000\000\000\000\263\0053\001\000\000\000\000\230\0023\001\000\000\000\0006\0023\001\000\000\000\000\203\0063\001\000\000\000\000j\0033\001\000\000\000\000\373\0023\001\000\000\000\000ay3\001\000\000\000\000_\0053\001\000\000\000\000\211\0063\001\000\000\000\000\372\0023\001\000\000\000\000\301\0053\001\000\000\000\0004\0043\001\000\000\000\000\210\0043\001\000\000\000\000\033\0063\001\000\000\000\000X\0053\001\000\000\000\0000\0023\001\000\000\000\000}\0063\001\000\000\000\000\225\0043\001\000\000\000\000\245\0023\001\000\000\000\000)\0023\001\000\000\000\000\201\0043\001\000\000\000\000\307\0053\001\000\000\000\000\245\0023\001\000\000\000\000&\0043\001\000\000\000\000\210\0043\001\000\000\000\000\r,3\001\000\000\000\000}\0063\001\000\000\000\000\217\0043\001\000\000\000\000[\0033\001\000\000\000\000\376\0043\001\000\000\000\000/\0023\001\000\000\000\000\"\0063\001\000\000\000\000\342\0043\001\000\000\000\000\305\0033\001\000\000\000\000\221\0023\001\000\000\000\000\214z3\001\000\000\000\000\236\0023\001\000\000\000\000\314\0033\001\000\000\000\000\272\0053\001\000\000\000\000-\0043\001\000\000\000\000\024\0063\001\000\000\000\000\212\0023\001\000\000\000\000\272\0053\001\000\000\000\000_\0053\001\000\000\000\000\245\0023\001\000\000\000\000\245\0023\001\000\000\000\000\201\0043\001\000\000\000\000\033\0063\001\000\000\000\000\230\0023\001\000\000\000\000\002\0033\001\000\000\000\000\265y3\001\000\000\000\000\205-3\001\000\000\000\000\237\0023\001\000\000\000\000-\0043\001\000\000\000\000&\0043\001\000\000\000\000\367\0043\001\000\000\000\000v\0063\001\000\000\000\000\364\0023\001\000\000\000\000\024\0063\001\000\000\000\000c\0033\001\000\000\000\000\226\0043\001\000\000\000\000D\2373\001\000\000\000\000\233T3\001\000\000\000\000\002\0033\001\000\000\000\000c\0033\001\000\000\000\000\272\0053\001\000\000\000\000\364\0023\001\000\000\000\000v\0063\001\000\000\000\000\276\0033\001\000\000\000\000\366\0043\001\000\000\000\000\307\0053\001\000\000\000\000U\0033\001\000\000\000\000&\0043\001\000\000\000\000\323\0033\001\000\000\000\000\376\0043\001\000\000\000\000)\0063\001\000\000\000\000\276\0033\001\000\000\000\000\341\0043\001\000\000\000\000)\0063\001\000\000\000\000\314\0033\001\000\000\000\000\230\0023\001\000\000\000\000\245\0023\001\000\000\000\000\203\0063\001\000\000\000\0007\0023\001\000\000\000\0004\0043\001\000\000\000\000\263\0053\001\000\000\000\000}\0063\001\000\000\000\000J\0053\001\000\000\000\000\"\0063\001\000\000\000\000\305\0033\001\000\000\000\000\376\0043\001\000\000\000\000J\0053\001\000\000\000\000\263\0053\001\000\000\000\000\360\0043\001\000\000\000\000\307\0053\001\000\000\000\000\002\0033\001\000\000\000\000\245\0023\001\000\000\000\000Q\0053\001\000\000\000\000\305\0033\001\000\000\000\0007\0023\001\000\000\000\000X\0053\001\000\000\000\000c\0033\001\000\000\000\000\245\0023\001\000\000\000\000\351\0043\001\000\000\000\000\323\0033\001\000\000\000\000)\0023\001\000\000\000\000\272\0053\001\000\000\000\000>\0023\001\000\000\000\000\225\0043\001\000\000\000\0000\0023\001\000\000\000\000\217\0043\001\000\000\000\000X\0053\001\000\000\000\000\253\0053\001\000\000\000\000\351\0043\001\000\000\000\000\"\0063\001\000\000\000\0004\0043\001\000\000\000\000\276\0033\001\000\000\000\000\033\0063\001\000\000\000\000\350\0043\001\000\000\000\000v\0063\001\000\000\000\000)\0063\001\000\000\000\000J\2373\001\000\000\000\000Q\0053\001\000\000\000\000\"\0063\001\000\000\000\000\305\0033\001\000\000\000\0000\0023\001\000\000\000\000K)3\001\000\000\000\000\361+3\001\000\000\000\000_,3\001\000\000\000\000R)3\001\000\000\000\000-+3\001\000\000\000\000\222-3\001\000\000\000\000\253+3\001\000\000\000\000\217+3\001\000\000\000\000<+3\001\000\000\000\000\255)3\001\000\000\000\000=)3\001\000\000\000\000A{3\001\000\000\000\000\347z3\001\000\000\000\000\376+3\001\000\000\000\000\326,3\001\000\000\000\000\236+3\001\000\000\000\000*-3\001\000\000\000\000\205-3\001\000\000\000\000\006,3\001\000\000\000\000\245\2373\001\000\000\000\000\272,3\001\000\000\000\000\rS3\001\000\000\000\000\227+3\001\000\000\000\000a\2403\001\000\000\000\000e,3\001\000\000\000\0005+3\001\000\000\000\000\230-3\001\000\000\000\000\214-3\001\000\000\000\000\021*3\001\000\000\000\000\030*3\001\000\000\000\000\332*3\001\000\000\000\000\213-3\001\000\000\000\000j*3\001\000\000\000\000\342*3\001\000\000\000\0005)3\001\000\000\000\000k*3\001\000\000\000\000\236)3\001\000\000\000\000d*3\001\000\000\000\000\235+3\001\000\000\000\000\272,3\001\000\000\000\000\r,3\001\000\000\000\000C+3\001\000\000\000\000\n*3\001\000\000\000\000\315*3\001\000\000\000\0001-3\001\000\000\000\000\245+3\001\000\000\000\000\367+3\001\000\000\000\000\264)3\001\000\000\000\000\324*3\001\000\000\000\000K)3\001\000\000\000\0008-3\001\000\000\000\000`,3\001\000\000\000\000\236)3\001\000\000\000\000E)3\001\000\000\000\000*-3\001\000\000\000\000E)3\001\000\000\000\000`,3\001\000\000\000\000C+3\001\000\000\000\000`,3\001\000\000\000\000\246)3\001\000\000\000\000\223-3\001\000\000\000\000\222-3\001\000\000\000\000\254\2421\001\000\000\000\000\230-3\001\000\000\000\000\326,3\001\000\000\000\000=)3\001\000\000\000\0008-3\001\000\000\000\000\367+3\001\000\000\000\000\003*3\001\000\000\000\000\324*3\001\000\000\000\000\255)3\001\000\000\000\000\205-3\001\000\000\000\000\250T3\001\000\000\000\000\311,3\001\000\000\000\000\317,3\001\000\000\000\000\255)3\001\000\000\000\000y\2363\001\000\000\000\000\r,3\001\000\000\000\000\223-3\001\000\000\000\000y*3\001\000\000\000\000r*3\001\000\000\000\000\332*3\001\000\000\000\000\326,3\001\000\000\000\000=)3\001\000\000\000\000\246)3\001\000\000\000\000-+3\001\000\000\000\000r*3\001\000\000\000\000L)3\001\000\000\000\000\320,3\001\000\000\000\000\237-3\001\000\000\000\000\255)3\001\000\000\000\000n,3\001\000\000\000\000\021*3\001\000\000\000\000m,3\001\000\000\000\000\033S3\001\000\000\000\000\"-3\001\000\000\000\000*-3\001\000\000\000\0008-3\001\000\000\000\000\301,3\001\000\000\000\000\246)3\001\000\000\000\0008-3\001\000\000\000\000\245+3\001\000\000\000\000\320,3\001\000\000\000\000\003*3\001\000\000\000\000\245+3\001\000\000\000\000\237-3\001\000\000\000\000\006,3\001\000\000\000\000\272,3\001\000\000\000\000\021*3\001\000\000\000\000<+3\001\000\000\000\000r*3\001\000\000\000\000<+3\001\000\000\000\000\220+3\001\000\000\000\000\327,3\001\000\000\000\000y*3\001\000\000\000\000`,3\001\000\000\000\000<+3\001\000\000\000\000\236+3\001\000\000\000\000\255)3\001\000\000\000\000\272,3\001\000\000\000\000y*3\001\000\000\000\0008-3\001\000\000\000\000d*3\001\000\000\000\000\021*3\001\000\000\000\000 Q3\001\000\000\000\000k*3\001\000\000\000\000\333*3\001\000\000\000\000\264)3\001\000\000\000\000\376+3\001\000\000\000\000*-3\001\000\000\000\000\223-3\001\000\000\000\000\342*3\001\000\000\000\000\272,3\001\000\000\000\000\376+3\001\000\000\000\000e,3\001\000\000\000\000\n*3\001\000\000\000\000Sy3\001\000\000\000\000d*3\001\000\000\000\000\315*3\001\000\000\000\000\"-3\001\000\000\000\000\305*3\001\000\000\000\000\227+3\001\000\000\000\000\237-3\001\000\000\000\000-+3\001\000\000\000\000Y,3\001\000\000\000\000\264)3\001\000\000\000\000L)3\001\000\000\000\000\227+3\001\000\000\000\000O{3\001\000\000\000\000C+3\001\000\000\000\000\306*3\001\000\000\000\000<+3\001\000\000\000\000\320,3\001\000\000\000\000\255)3\001\000\000\000\0008-3\001\000\000\000\000-+3\001\000\000\000\000\205-3\001\000\000\000\000\220+3\001\000\000\000\000=)3\001\000\000\000\000`,3\001\000\000\000\000\031Q3\001\000\000\000\000\n*3\001\000\000\000\000\214-3\001\000\000\000\0008-3\001\000\000\000\000\236+3\001\000\000\000\0001-3\001\000\000\000\000\361+3\001\000\000\000\000Y,3\001\000\000\000\000\246)3\001\000\000\000\000\264)3\001\000\000\000\000\022Q3\001\000\000\000\0001-3\001\000\000\000\000\231-3\001\000\000\000\000\311,3\001\000\000\000\000\376+3\001\000\000\000\000R)3\001\000\000\000\000d*3\001\000\000\000\000\000y3\001\000\000\000\000<+3\001\000\000\000\000\220+3\001\000\000\000\000\220+3\001\000\000\000\000\324*3\001\000\000\000\000k*3\001\000\000\000\000*-3\001\000\000\000\000\n*3\001\000\000\000\000\227+3\001\000\000\000\000"
      }
    }
  }
}
node {
  name: "Const_1"
  op: "Const"
  attr {
    key: "_output_shapes"
    value {
      list {
        shape {
          dim {
            size: 2000
          }
        }
      }
    }
  }
  attr {
    key: "dtype"
    value {
      type: DT_INT64
    }
  }
  attr {
    key: "value"
    value {
      tensor {
        dtype: DT_INT64
        tensor_shape {
          dim {
            size: 2000
          }
        }
        tensor_content: "\324\007\000\000\000\000\000\000\324\007\000\000\000\000\000\000\324\007\000\000\000\000\000\000\324\007\000\000\000\000\000\000\336\007\000\000\000\000\000\000\336\007\000\000\000\000\000\000\324\007\000\000\000\000\000\000\324\007\000\000\000\000\000\000\324\007\000\000\000\000\000\000\323\007\000\000\000\000\000\000\336\007\000\000\000\000\000\000\324\007\000\000\000\000\000\000\324\007\000\000\000\000\000\000\324\007\000\000\000\000\000\000\324\007\000\000\000\000\000\000\324\007\000\000\000\000\000\000\340\007\000\000\000\000\000\000\324\007\000\000\000\000\000\000\324\007\000\000\000\000\000\000\324\007\000\000\000\000\000\000\324\007\000\000\000\000\000\000\327\007\000\000\000\000\000\000\326\007\000\000\000\000\000\000\324\007\000\000\000\000\000\000\324\007\000\000\000\000\000\000\324\007\000\000\000\000\000\000\324\007\000\000\000\000\000\000\324\007\000\000\000\000\000\000\324\007\000\000\000\000\000\000\324\007\000\000\000\000\000\000\324\007\000\000\000\000\000\000\324\007\000\000\000\000\000\000\324\007\000\000\000\000\000\000\324\007\000\000\000\000\000\000\324\007\000\000\000\000\000\000\324\007\000\000\000\000\000\000\324\007\000\000\000\000\000\000\324\007\000\000\000\000\000\000\324\007\000\000\000\000\000\000\324\007\000\000\000\000\000\000\324\007\000\000\000\000\000\000\324\007\000\000\000\000\000\000\324\007\000\000\000\000\000\000\330\007\000\000\000\000\000\000\335\007\000\000\000\000\000\000\324\007\000\000\000\000\000\000\323\007\000\000\000\000\000\000\324\007\000\000\000\000\000\000\324\007\000\000\000\000\000\000\323\007\000\000\000\000\000\000\324\007\000\000\000\000\000\000\324\007\000\000\000\000\000\000\324\007\000\000\000\000\000\000\324\007\000\000\000\000\000\000\323\007\000\000\000\000\000\000\324\007\000\000\000\000\000\000\323\007\000\000\000\000\000\000\324\007\000\000\000\000\000\000\324\007\000\000\000\000\000\000\324\007\000\000\000\000\000\000\324\007\000\000\000\000\000\000\324\007\000\000\000\000\000\000\324\007\000\000\000\000\000\000\324\007\000\000\000\000\000\000\323\007\000\000\000\000\000\000\324\007\000\000\000\000\000\000\324\007\000\000\000\000\000\000\324\007\000\000\000\000\000\000\331\007\000\000\000\000\000\000\330\007\000\000\000\000\000\000\326\007\000\000\000\000\000\000\324\007\000\000\000\000\000\000\324\007\000\000\000\000\000\000\337\007\000\000\000\000\000\000\337\007\000\000\000\000\000\000\331\007\000\000\000\000\000\000\326\007\000\000\000\000\000\000\324\007\000\000\000\000\000\000\324\007\000\000\000\000\000\000\324\007\000\000\000\000\000\000\324\007\000\000\000\000\000\000\324\007\000\000\000\000\000\000\324\007\000\000\000\000\000\000\324\007\000\000\000\000\000\000\324\007\000\000\000\000\000\000\324\007\000\000\000\000\000\000\324\007\000\000\000\000\000\000\327\007\000\000\000\000\000\000\324\007\000\000\000\000\000\000\324\007\000\000\000\000\000\000\324\007\000\000\000\000\000\000\324\007\000\000\000\000\000\000\324\007\000\000\000\000\000\000\324\007\000\000\000\000\000\000\323\007\000\000\000\000\000\000\323\007\000\000\000\000\000\000\323\007\000\000\000\000\000\000\323\007\000\000\000\000\000\000\324\007\000\000\000\000\000\000\327\007\000\000\000\000\000\000\324\007\000\000\000\000\000\000\323\007\000\000\000\000\000\000\324\007\000\000\000\000\000\000\324\007\000\000\000\000\000\000\324\007\000\000\000\000\000\000\324\007\000\000\000\000\000\000\324\007\000\000\000\000\000\000\330\007\000\000\000\000\000\000\324\007\000\000\000\000\000\000\324\007\000\000\000\000\000\000\324\007\000\000\000\000\000\000\337\007\000\000\000\000\000\000\324\007\000\000\000\000\000\000\324\007\000\000\000\000\000\000\324\007\000\000\000\000\000\000\324\007\000\000\000\000\000\000\324\007\000\000\000\000\000\000\323\007\000\000\000\000\000\000\324\007\000\000\000\000\000\000\324\007\000\000\000\000\000\000\324\007\000\000\000\000\000\000\323\007\000\000\000\000\000\000\324\007\000\000\000\000\000\000\324\007\000\000\000\000\000\000\323\007\000\000\000\000\000\000\324\007\000\000\000\000\000\000\323\007\000\000\000\000\000\000\323\007\000\000\000\000\000\000\321\007\000\000\000\000\000\000\337\007\000\000\000\000\000\000\337\007\000\000\000\000\000\000\323\007\000\000\000\000\000\000\335\007\000\000\000\000\000\000\323\007\000\000\000\000\000\000\324\007\000\000\000\000\000\000\324\007\000\000\000\000\000\000\324\007\000\000\000\000\000\000\323\007\000\000\000\000\000\000\324\007\000\000\000\000\000\000\324\007\000\000\000\000\000\000\324\007\000\000\000\000\000\000\324\007\000\000\000\000\000\000\324\007\000\000\000\000\000\000\324\007\000\000\000\000\000\000\324\007\000\000\000\000\000\000\323\007\000\000\000\000\000\000\324\007\000\000\000\000\000\000\324\007\000\000\000\000\000\000\323\007\000\000\000\000\000\000\333\007\000\000\000\000\000\000\324\007\000\000\000\000\000\000\323\007\000\000\000\000\000\000\324\007\000\000\000\000\000\000\323\007\000\000\000\000\000\000\323\007\000\000\000\000\000\000\324\007\000\000\000\000\000\000\322\007\000\000\000\000\000\000\323\007\000\000\000\000\000\000\323\007\000\000\000\000\000\000\324\007\000\000\000\000\000\000\323\007\000\000\000\000\000\000\324\007\000\000\000\000\000\000\324\007\000\000\000\000\000\000\323\007\000\000\000\000\000\000\323\007\000\000\000\000\000\000\332\007\000\000\000\000\000\000\323\007\000\000\000\000\000\000\323\007\000\000\000\000\000\000\323\007\000\000\000\000\000\000\302\007\000\000\000\000\000\000\324\007\000\000\000\000\000\000\324\007\000\000\000\000\000\000\324\007\000\000\000\000\000\000\323\007\000\000\000\000\000\000\323\007\000\000\000\000\000\000\324\007\000\000\000\000\000\000\323\007\000\000\000\000\000\000\323\007\000\000\000\000\000\000\324\007\000\000\000\000\000\000\324\007\000\000\000\000\000\000\325\007\000\000\000\000\000\000\323\007\000\000\000\000\000\000\322\007\000\000\000\000\000\000\326\007\000\000\000\000\000\000\332\007\000\000\000\000\000\000\336\007\000\000\000\000\000\000\331\007\000\000\000\000\000\000\323\007\000\000\000\000\000\000\324\007\000\000\000\000\000\000\324\007\000\000\000\000\000\000\323\007\000\000\000\000\000\000\340\007\000\000\000\000\000\000\337\007\000\000\000\000\000\000\325\007\000\000\000\000\000\000\325\007\000\000\000\000\000\000\325\007\000\000\000\000\000\000\325\007\000\000\000\000\000\000\330\007\000\000\000\000\000\000\325\007\000\000\000\000\000\000\325\007\000\000\000\000\000\000\340\007\000\000\000\000\000\000\335\007\000\000\000\000\000\000\325\007\000\000\000\000\000\000\325\007\000\000\000\000\000\000\325\007\000\000\000\000\000\000\325\007\000\000\000\000\000\000\327\007\000\000\000\000\000\000\325\007\000\000\000\000\000\000\331\007\000\000\000\000\000\000\325\007\000\000\000\000\000\000\325\007\000\000\000\000\000\000\325\007\000\000\000\000\000\000\324\007\000\000\000\000\000\000\324\007\000\000\000\000\000\000\325\007\000\000\000\000\000\000\325\007\000\000\000\000\000\000\325\007\000\000\000\000\000\000\325\007\000\000\000\000\000\000\324\007\000\000\000\000\000\000\336\007\000\000\000\000\000\000\334\007\000\000\000\000\000\000\325\007\000\000\000\000\000\000\330\007\000\000\000\000\000\000\325\007\000\000\000\000\000\000\325\007\000\000\000\000\000\000\325\007\000\000\000\000\000\000\325\007\000\000\000\000\000\000\325\007\000\000\000\000\000\000\324\007\000\000\000\000\000\000\325\007\000\000\000\000\000\000\324\007\000\000\000\000\000\000\324\007\000\000\000\000\000\000\325\007\000\000\000\000\000\000\324\007\000\000\000\000\000\000\325\007\000\000\000\000\000\000\325\007\000\000\000\000\000\000\324\007\000\000\000\000\000\000\325\007\000\000\000\000\000\000\325\007\000\000\000\000\000\000\325\007\000\000\000\000\000\000\324\007\000\000\000\000\000\000\324\007\000\000\000\000\000\000\324\007\000\000\000\000\000\000\324\007\000\000\000\000\000\000\324\007\000\000\000\000\000\000\325\007\000\000\000\000\000\000\325\007\000\000\000\000\000\000\335\007\000\000\000\000\000\000\325\007\000\000\000\000\000\000\325\007\000\000\000\000\000\000\325\007\000\000\000\000\000\000\325\007\000\000\000\000\000\000\324\007\000\000\000\000\000\000\325\007\000\000\000\000\000\000\325\007\000\000\000\000\000\000\337\007\000\000\000\000\000\000\327\007\000\000\000\000\000\000\325\007\000\000\000\000\000\000\324\007\000\000\000\000\000\000\326\007\000\000\000\000\000\000\331\007\000\000\000\000\000\000\325\007\000\000\000\000\000\000\324\007\000\000\000\000\000\000\325\007\000\000\000\000\000\000\324\007\000\000\000\000\000\000\325\007\000\000\000\000\000\000\324\007\000\000\000\000\000\000\325\007\000\000\000\000\000\000\324\007\000\000\000\000\000\000\325\007\000\000\000\000\000\000\325\007\000\000\000\000\000\000\325\007\000\000\000\000\000\000\324\007\000\000\000\000\000\000\325\007\000\000\000\000\000\000\335\007\000\000\000\000\000\000\325\007\000\000\000\000\000\000\325\007\000\000\000\000\000\000\325\007\000\000\000\000\000\000\331\007\000\000\000\000\000\000\324\007\000\000\000\000\000\000\325\007\000\000\000\000\000\000\324\007\000\000\000\000\000\000\325\007\000\000\000\000\000\000\325\007\000\000\000\000\000\000\330\007\000\000\000\000\000\000\332\007\000\000\000\000\000\000\325\007\000\000\000\000\000\000\331\007\000\000\000\000\000\000\325\007\000\000\000\000\000\000\326\007\000\000\000\000\000\000\327\007\000\000\000\000\000\000\324\007\000\000\000\000\000\000\325\007\000\000\000\000\000\000\325\007\000\000\000\000\000\000\323\007\000\000\000\000\000\000\325\007\000\000\000\000\000\000\325\007\000\000\000\000\000\000\324\007\000\000\000\000\000\000\324\007\000\000\000\000\000\000\325\007\000\000\000\000\000\000\325\007\000\000\000\000\000\000\325\007\000\000\000\000\000\000\326\007\000\000\000\000\000\000\323\007\000\000\000\000\000\000\324\007\000\000\000\000\000\000\324\007\000\000\000\000\000\000\324\007\000\000\000\000\000\000\324\007\000\000\000\000\000\000\325\007\000\000\000\000\000\000\325\007\000\000\000\000\000\000\325\007\000\000\000\000\000\000\325\007\000\000\000\000\000\000\324\007\000\000\000\000\000\000\325\007\000\000\000\000\000\000\340\007\000\000\000\000\000\000\332\007\000\000\000\000\000\000\324\007\000\000\000\000\000\000\325\007\000\000\000\000\000\000\325\007\000\000\000\000\000\000\323\007\000\000\000\000\000\000\325\007\000\000\000\000\000\000\336\007\000\000\000\000\000\000\332\007\000\000\000\000\000\000\324\007\000\000\000\000\000\000\324\007\000\000\000\000\000\000\324\007\000\000\000\000\000\000\325\007\000\000\000\000\000\000\325\007\000\000\000\000\000\000\325\007\000\000\000\000\000\000\325\007\000\000\000\000\000\000\324\007\000\000\000\000\000\000\325\007\000\000\000\000\000\000\325\007\000\000\000\000\000\000\325\007\000\000\000\000\000\000\325\007\000\000\000\000\000\000\325\007\000\000\000\000\000\000\325\007\000\000\000\000\000\000\325\007\000\000\000\000\000\000\323\007\000\000\000\000\000\000\324\007\000\000\000\000\000\000\324\007\000\000\000\000\000\000\324\007\000\000\000\000\000\000\323\007\000\000\000\000\000\000\327\007\000\000\000\000\000\000\325\007\000\000\000\000\000\000\325\007\000\000\000\000\000\000\324\007\000\000\000\000\000\000\324\007\000\000\000\000\000\000\325\007\000\000\000\000\000\000\325\007\000\000\000\000\000\000\324\007\000\000\000\000\000\000\340\007\000\000\000\000\000\000\325\007\000\000\000\000\000\000\324\007\000\000\000\000\000\000\337\007\000\000\000\000\000\000\323\007\000\000\000\000\000\000\324\007\000\000\000\000\000\000\325\007\000\000\000\000\000\000\312\007\000\000\000\000\000\000\324\007\000\000\000\000\000\000\323\007\000\000\000\000\000\000\324\007\000\000\000\000\000\000\325\007\000\000\000\000\000\000\324\007\000\000\000\000\000\000\325\007\000\000\000\000\000\000\324\007\000\000\000\000\000\000\325\007\000\000\000\000\000\000\325\007\000\000\000\000\000\000\324\007\000\000\000\000\000\000\325\007\000\000\000\000\000\000\325\007\000\000\000\000\000\000\323\007\000\000\000\000\000\000\325\007\000\000\000\000\000\000\324\007\000\000\000\000\000\000\325\007\000\000\000\000\000\000\326\007\000\000\000\000\000\000\335\007\000\000\000\000\000\000\337\007\000\000\000\000\000\000\326\007\000\000\000\000\000\000\336\007\000\000\000\000\000\000\326\007\000\000\000\000\000\000\326\007\000\000\000\000\000\000\326\007\000\000\000\000\000\000\326\007\000\000\000\000\000\000\333\007\000\000\000\000\000\000\326\007\000\000\000\000\000\000\331\007\000\000\000\000\000\000\326\007\000\000\000\000\000\000\326\007\000\000\000\000\000\000\326\007\000\000\000\000\000\000\326\007\000\000\000\000\000\000\326\007\000\000\000\000\000\000\326\007\000\000\000\000\000\000\326\007\000\000\000\000\000\000\326\007\000\000\000\000\000\000\326\007\000\000\000\000\000\000\326\007\000\000\000\000\000\000\331\007\000\000\000\000\000\000\326\007\000\000\000\000\000\000\326\007\000\000\000\000\000\000\326\007\000\000\000\000\000\000\326\007\000\000\000\000\000\000\326\007\000\000\000\000\000\000\326\007\000\000\000\000\000\000\326\007\000\000\000\000\000\000\337\007\000\000\000\000\000\000\326\007\000\000\000\000\000\000\336\007\000\000\000\000\000\000\326\007\000\000\000\000\000\000\326\007\000\000\000\000\000\000\325\007\000\000\000\000\000\000\326\007\000\000\000\000\000\000\326\007\000\000\000\000\000\000\326\007\000\000\000\000\000\000\325\007\000\000\000\000\000\000\332\007\000\000\000\000\000\000\326\007\000\000\000\000\000\000\325\007\000\000\000\000\000\000\325\007\000\000\000\000\000\000\326\007\000\000\000\000\000\000\325\007\000\000\000\000\000\000\326\007\000\000\000\000\000\000\326\007\000\000\000\000\000\000\326\007\000\000\000\000\000\000\325\007\000\000\000\000\000\000\326\007\000\000\000\000\000\000\325\007\000\000\000\000\000\000\325\007\000\000\000\000\000\000\326\007\000\000\000\000\000\000\326\007\000\000\000\000\000\000\326\007\000\000\000\000\000\000\326\007\000\000\000\000\000\000\330\007\000\000\000\000\000\000\326\007\000\000\000\000\000\000\326\007\000\000\000\000\000\000\326\007\000\000\000\000\000\000\340\007\000\000\000\000\000\000\326\007\000\000\000\000\000\000\326\007\000\000\000\000\000\000\326\007\000\000\000\000\000\000\326\007\000\000\000\000\000\000\326\007\000\000\000\000\000\000\326\007\000\000\000\000\000\000\325\007\000\000\000\000\000\000\326\007\000\000\000\000\000\000\326\007\000\000\000\000\000\000\326\007\000\000\000\000\000\000\325\007\000\000\000\000\000\000\326\007\000\000\000\000\000\000\325\007\000\000\000\000\000\000\326\007\000\000\000\000\000\000\326\007\000\000\000\000\000\000\326\007\000\000\000\000\000\000\326\007\000\000\000\000\000\000\326\007\000\000\000\000\000\000\326\007\000\000\000\000\000\000\333\007\000\000\000\000\000\000\326\007\000\000\000\000\000\000\325\007\000\000\000\000\000\000\326\007\000\000\000\000\000\000\326\007\000\000\000\000\000\000\326\007\000\000\000\000\000\000\326\007\000\000\000\000\000\000\326\007\000\000\000\000\000\000\326\007\000\000\000\000\000\000\326\007\000\000\000\000\000\000\336\007\000\000\000\000\000\000\334\007\000\000\000\000\000\000\332\007\000\000\000\000\000\000\330\007\000\000\000\000\000\000\326\007\000\000\000\000\000\000\331\007\000\000\000\000\000\000\326\007\000\000\000\000\000\000\333\007\000\000\000\000\000\000\326\007\000\000\000\000\000\000\326\007\000\000\000\000\000\000\326\007\000\000\000\000\000\000\326\007\000\000\000\000\000\000\326\007\000\000\000\000\000\000\326\007\000\000\000\000\000\000\326\007\000\000\000\000\000\000\326\007\000\000\000\000\000\000\326\007\000\000\000\000\000\000\326\007\000\000\000\000\000\000\326\007\000\000\000\000\000\000\326\007\000\000\000\000\000\000\325\007\000\000\000\000\000\000\325\007\000\000\000\000\000\000\326\007\000\000\000\000\000\000\326\007\000\000\000\000\000\000\325\007\000\000\000\000\000\000\326\007\000\000\000\000\000\000\325\007\000\000\000\000\000\000\326\007\000\000\000\000\000\000\326\007\000\000\000\000\000\000\326\007\000\000\000\000\000\000\334\007\000\000\000\000\000\000\326\007\000\000\000\000\000\000\326\007\000\000\000\000\000\000\331\007\000\000\000\000\000\000\324\007\000\000\000\000\000\000\326\007\000\000\000\000\000\000\324\007\000\000\000\000\000\000\326\007\000\000\000\000\000\000\325\007\000\000\000\000\000\000\326\007\000\000\000\000\000\000\326\007\000\000\000\000\000\000\325\007\000\000\000\000\000\000\326\007\000\000\000\000\000\000\326\007\000\000\000\000\000\000\326\007\000\000\000\000\000\000\326\007\000\000\000\000\000\000\326\007\000\000\000\000\000\000\325\007\000\000\000\000\000\000\326\007\000\000\000\000\000\000\324\007\000\000\000\000\000\000\336\007\000\000\000\000\000\000\326\007\000\000\000\000\000\000\326\007\000\000\000\000\000\000\326\007\000\000\000\000\000\000\326\007\000\000\000\000\000\000\326\007\000\000\000\000\000\000\326\007\000\000\000\000\000\000\325\007\000\000\000\000\000\000\326\007\000\000\000\000\000\000\325\007\000\000\000\000\000\000\326\007\000\000\000\000\000\000\326\007\000\000\000\000\000\000\326\007\000\000\000\000\000\000\326\007\000\000\000\000\000\000\326\007\000\000\000\000\000\000\325\007\000\000\000\000\000\000\325\007\000\000\000\000\000\000\325\007\000\000\000\000\000\000\325\007\000\000\000\000\000\000\326\007\000\000\000\000\000\000\331\007\000\000\000\000\000\000\334\007\000\000\000\000\000\000\326\007\000\000\000\000\000\000\326\007\000\000\000\000\000\000\325\007\000\000\000\000\000\000\326\007\000\000\000\000\000\000\325\007\000\000\000\000\000\000\326\007\000\000\000\000\000\000\326\007\000\000\000\000\000\000\324\007\000\000\000\000\000\000\325\007\000\000\000\000\000\000\326\007\000\000\000\000\000\000\326\007\000\000\000\000\000\000\326\007\000\000\000\000\000\000\326\007\000\000\000\000\000\000\325\007\000\000\000\000\000\000\336\007\000\000\000\000\000\000\326\007\000\000\000\000\000\000\326\007\000\000\000\000\000\000\324\007\000\000\000\000\000\000\326\007\000\000\000\000\000\000\326\007\000\000\000\000\000\000\325\007\000\000\000\000\000\000\325\007\000\000\000\000\000\000\325\007\000\000\000\000\000\000\337\007\000\000\000\000\000\000\325\007\000\000\000\000\000\000\326\007\000\000\000\000\000\000\326\007\000\000\000\000\000\000\326\007\000\000\000\000\000\000\326\007\000\000\000\000\000\000\326\007\000\000\000\000\000\000\325\007\000\000\000\000\000\000\326\007\000\000\000\000\000\000\325\007\000\000\000\000\000\000\326\007\000\000\000\000\000\000\326\007\000\000\000\000\000\000\325\007\000\000\000\000\000\000\325\007\000\000\000\000\000\000\325\007\000\000\000\000\000\000\326\007\000\000\000\000\000\000\326\007\000\000\000\000\000\000\324\007\000\000\000\000\000\000\324\007\000\000\000\000\000\000\325\007\000\000\000\000\000\000\325\007\000\000\000\000\000\000\321\007\000\000\000\000\000\000\327\007\000\000\000\000\000\000\336\007\000\000\000\000\000\000\333\007\000\000\000\000\000\000\331\007\000\000\000\000\000\000\327\007\000\000\000\000\000\000\327\007\000\000\000\000\000\000\327\007\000\000\000\000\000\000\327\007\000\000\000\000\000\000\327\007\000\000\000\000\000\000\327\007\000\000\000\000\000\000\326\007\000\000\000\000\000\000\331\007\000\000\000\000\000\000\327\007\000\000\000\000\000\000\336\007\000\000\000\000\000\000\326\007\000\000\000\000\000\000\327\007\000\000\000\000\000\000\327\007\000\000\000\000\000\000\327\007\000\000\000\000\000\000\327\007\000\000\000\000\000\000\327\007\000\000\000\000\000\000\327\007\000\000\000\000\000\000\327\007\000\000\000\000\000\000\330\007\000\000\000\000\000\000\327\007\000\000\000\000\000\000\327\007\000\000\000\000\000\000\327\007\000\000\000\000\000\000\327\007\000\000\000\000\000\000\327\007\000\000\000\000\000\000\327\007\000\000\000\000\000\000\327\007\000\000\000\000\000\000\327\007\000\000\000\000\000\000\326\007\000\000\000\000\000\000\327\007\000\000\000\000\000\000\327\007\000\000\000\000\000\000\327\007\000\000\000\000\000\000\327\007\000\000\000\000\000\000\327\007\000\000\000\000\000\000\327\007\000\000\000\000\000\000\327\007\000\000\000\000\000\000\327\007\000\000\000\000\000\000\337\007\000\000\000\000\000\000\327\007\000\000\000\000\000\000\327\007\000\000\000\000\000\000\327\007\000\000\000\000\000\000\327\007\000\000\000\000\000\000\327\007\000\000\000\000\000\000\326\007\000\000\000\000\000\000\326\007\000\000\000\000\000\000\326\007\000\000\000\000\000\000\327\007\000\000\000\000\000\000\327\007\000\000\000\000\000\000\331\007\000\000\000\000\000\000\327\007\000\000\000\000\000\000\326\007\000\000\000\000\000\000\327\007\000\000\000\000\000\000\327\007\000\000\000\000\000\000\327\007\000\000\000\000\000\000\332\007\000\000\000\000\000\000\326\007\000\000\000\000\000\000\327\007\000\000\000\000\000\000\327\007\000\000\000\000\000\000\332\007\000\000\000\000\000\000\333\007\000\000\000\000\000\000\327\007\000\000\000\000\000\000\327\007\000\000\000\000\000\000\327\007\000\000\000\000\000\000\327\007\000\000\000\000\000\000\327\007\000\000\000\000\000\000\327\007\000\000\000\000\000\000\337\007\000\000\000\000\000\000\327\007\000\000\000\000\000\000\333\007\000\000\000\000\000\000\331\007\000\000\000\000\000\000\327\007\000\000\000\000\000\000\327\007\000\000\000\000\000\000\327\007\000\000\000\000\000\000\327\007\000\000\000\000\000\000\333\007\000\000\000\000\000\000\327\007\000\000\000\000\000\000\337\007\000\000\000\000\000\000\326\007\000\000\000\000\000\000\327\007\000\000\000\000\000\000\327\007\000\000\000\000\000\000\327\007\000\000\000\000\000\000\327\007\000\000\000\000\000\000\334\007\000\000\000\000\000\000\334\007\000\000\000\000\000\000\327\007\000\000\000\000\000\000\326\007\000\000\000\000\000\000\327\007\000\000\000\000\000\000\327\007\000\000\000\000\000\000\327\007\000\000\000\000\000\000\327\007\000\000\000\000\000\000\327\007\000\000\000\000\000\000\326\007\000\000\000\000\000\000\327\007\000\000\000\000\000\000\327\007\000\000\000\000\000\000\330\007\000\000\000\000\000\000\326\007\000\000\000\000\000\000\327\007\000\000\000\000\000\000\326\007\000\000\000\000\000\000\327\007\000\000\000\000\000\000\326\007\000\000\000\000\000\000\327\007\000\000\000\000\000\000\340\007\000\000\000\000\000\000\337\007\000\000\000\000\000\000\330\007\000\000\000\000\000\000\334\007\000\000\000\000\000\000\327\007\000\000\000\000\000\000\325\007\000\000\000\000\000\000\331\007\000\000\000\000\000\000\326\007\000\000\000\000\000\000\327\007\000\000\000\000\000\000\327\007\000\000\000\000\000\000\327\007\000\000\000\000\000\000\327\007\000\000\000\000\000\000\327\007\000\000\000\000\000\000\326\007\000\000\000\000\000\000\330\007\000\000\000\000\000\000\326\007\000\000\000\000\000\000\340\007\000\000\000\000\000\000\326\007\000\000\000\000\000\000\327\007\000\000\000\000\000\000\326\007\000\000\000\000\000\000\327\007\000\000\000\000\000\000\327\007\000\000\000\000\000\000\327\007\000\000\000\000\000\000\327\007\000\000\000\000\000\000\327\007\000\000\000\000\000\000\327\007\000\000\000\000\000\000\326\007\000\000\000\000\000\000\334\007\000\000\000\000\000\000\327\007\000\000\000\000\000\000\327\007\000\000\000\000\000\000\337\007\000\000\000\000\000\000\326\007\000\000\000\000\000\000\327\007\000\000\000\000\000\000\327\007\000\000\000\000\000\000\327\007\000\000\000\000\000\000\327\007\000\000\000\000\000\000\327\007\000\000\000\000\000\000\326\007\000\000\000\000\000\000\327\007\000\000\000\000\000\000\327\007\000\000\000\000\000\000\327\007\000\000\000\000\000\000\327\007\000\000\000\000\000\000\326\007\000\000\000\000\000\000\326\007\000\000\000\000\000\000\326\007\000\000\000\000\000\000\327\007\000\000\000\000\000\000\326\007\000\000\000\000\000\000\326\007\000\000\000\000\000\000\327\007\000\000\000\000\000\000\327\007\000\000\000\000\000\000\327\007\000\000\000\000\000\000\327\007\000\000\000\000\000\000\326\007\000\000\000\000\000\000\335\007\000\000\000\000\000\000\336\007\000\000\000\000\000\000\327\007\000\000\000\000\000\000\326\007\000\000\000\000\000\000\327\007\000\000\000\000\000\000\326\007\000\000\000\000\000\000\326\007\000\000\000\000\000\000\327\007\000\000\000\000\000\000\327\007\000\000\000\000\000\000\326\007\000\000\000\000\000\000\326\007\000\000\000\000\000\000\326\007\000\000\000\000\000\000\326\007\000\000\000\000\000\000\326\007\000\000\000\000\000\000\327\007\000\000\000\000\000\000\326\007\000\000\000\000\000\000\326\007\000\000\000\000\000\000\327\007\000\000\000\000\000\000\326\007\000\000\000\000\000\000\326\007\000\000\000\000\000\000\327\007\000\000\000\000\000\000\324\007\000\000\000\000\000\000\327\007\000\000\000\000\000\000\327\007\000\000\000\000\000\000\326\007\000\000\000\000\000\000\326\007\000\000\000\000\000\000\305\007\000\000\000\000\000\000\325\007\000\000\000\000\000\000\327\007\000\000\000\000\000\000\326\007\000\000\000\000\000\000\327\007\000\000\000\000\000\000\324\007\000\000\000\000\000\000\326\007\000\000\000\000\000\000\327\007\000\000\000\000\000\000\326\007\000\000\000\000\000\000\324\007\000\000\000\000\000\000\326\007\000\000\000\000\000\000\325\007\000\000\000\000\000\000\326\007\000\000\000\000\000\000\326\007\000\000\000\000\000\000\327\007\000\000\000\000\000\000\326\007\000\000\000\000\000\000\327\007\000\000\000\000\000\000\327\007\000\000\000\000\000\000\326\007\000\000\000\000\000\000\330\007\000\000\000\000\000\000\330\007\000\000\000\000\000\000\337\007\000\000\000\000\000\000\330\007\000\000\000\000\000\000\333\007\000\000\000\000\000\000\330\007\000\000\000\000\000\000\330\007\000\000\000\000\000\000\330\007\000\000\000\000\000\000\335\007\000\000\000\000\000\000\332\007\000\000\000\000\000\000\330\007\000\000\000\000\000\000\330\007\000\000\000\000\000\000\330\007\000\000\000\000\000\000\334\007\000\000\000\000\000\000\330\007\000\000\000\000\000\000\327\007\000\000\000\000\000\000\330\007\000\000\000\000\000\000\336\007\000\000\000\000\000\000\330\007\000\000\000\000\000\000\336\007\000\000\000\000\000\000\334\007\000\000\000\000\000\000\330\007\000\000\000\000\000\000\330\007\000\000\000\000\000\000\330\007\000\000\000\000\000\000\330\007\000\000\000\000\000\000\330\007\000\000\000\000\000\000\330\007\000\000\000\000\000\000\330\007\000\000\000\000\000\000\330\007\000\000\000\000\000\000\330\007\000\000\000\000\000\000\327\007\000\000\000\000\000\000\330\007\000\000\000\000\000\000\327\007\000\000\000\000\000\000\330\007\000\000\000\000\000\000\330\007\000\000\000\000\000\000\330\007\000\000\000\000\000\000\330\007\000\000\000\000\000\000\332\007\000\000\000\000\000\000\331\007\000\000\000\000\000\000\330\007\000\000\000\000\000\000\327\007\000\000\000\000\000\000\330\007\000\000\000\000\000\000\330\007\000\000\000\000\000\000\330\007\000\000\000\000\000\000\327\007\000\000\000\000\000\000\333\007\000\000\000\000\000\000\330\007\000\000\000\000\000\000\332\007\000\000\000\000\000\000\330\007\000\000\000\000\000\000\327\007\000\000\000\000\000\000\330\007\000\000\000\000\000\000\330\007\000\000\000\000\000\000\333\007\000\000\000\000\000\000\330\007\000\000\000\000\000\000\327\007\000\000\000\000\000\000\330\007\000\000\000\000\000\000\330\007\000\000\000\000\000\000\330\007\000\000\000\000\000\000\330\007\000\000\000\000\000\000\330\007\000\000\000\000\000\000\330\007\000\000\000\000\000\000\327\007\000\000\000\000\000\000\330\007\000\000\000\000\000\000\330\007\000\000\000\000\000\000\330\007\000\000\000\000\000\000\327\007\000\000\000\000\000\000\330\007\000\000\000\000\000\000\330\007\000\000\000\000\000\000\330\007\000\000\000\000\000\000\330\007\000\000\000\000\000\000\330\007\000\000\000\000\000\000\327\007\000\000\000\000\000\000\340\007\000\000\000\000\000\000\330\007\000\000\000\000\000\000\330\007\000\000\000\000\000\000\327\007\000\000\000\000\000\000\330\007\000\000\000\000\000\000\333\007\000\000\000\000\000\000\327\007\000\000\000\000\000\000\330\007\000\000\000\000\000\000\330\007\000\000\000\000\000\000\330\007\000\000\000\000\000\000\330\007\000\000\000\000\000\000\327\007\000\000\000\000\000\000\332\007\000\000\000\000\000\000\330\007\000\000\000\000\000\000\327\007\000\000\000\000\000\000\327\007\000\000\000\000\000\000\330\007\000\000\000\000\000\000\327\007\000\000\000\000\000\000\330\007\000\000\000\000\000\000\330\007\000\000\000\000\000\000\327\007\000\000\000\000\000\000\327\007\000\000\000\000\000\000\330\007\000\000\000\000\000\000\330\007\000\000\000\000\000\000\330\007\000\000\000\000\000\000\327\007\000\000\000\000\000\000\327\007\000\000\000\000\000\000\330\007\000\000\000\000\000\000\330\007\000\000\000\000\000\000\330\007\000\000\000\000\000\000\330\007\000\000\000\000\000\000\330\007\000\000\000\000\000\000\327\007\000\000\000\000\000\000\340\007\000\000\000\000\000\000\326\007\000\000\000\000\000\000\327\007\000\000\000\000\000\000\330\007\000\000\000\000\000\000\327\007\000\000\000\000\000\000\327\007\000\000\000\000\000\000\330\007\000\000\000\000\000\000\326\007\000\000\000\000\000\000\330\007\000\000\000\000\000\000\330\007\000\000\000\000\000\000\334\007\000\000\000\000\000\000\330\007\000\000\000\000\000\000\330\007\000\000\000\000\000\000\327\007\000\000\000\000\000\000\330\007\000\000\000\000\000\000\327\007\000\000\000\000\000\000\327\007\000\000\000\000\000\000\330\007\000\000\000\000\000\000\327\007\000\000\000\000\000\000\330\007\000\000\000\000\000\000\327\007\000\000\000\000\000\000\330\007\000\000\000\000\000\000\330\007\000\000\000\000\000\000\334\007\000\000\000\000\000\000\330\007\000\000\000\000\000\000\330\007\000\000\000\000\000\000\334\007\000\000\000\000\000\000\334\007\000\000\000\000\000\000\326\007\000\000\000\000\000\000\322\007\000\000\000\000\000\000\327\007\000\000\000\000\000\000\330\007\000\000\000\000\000\000\327\007\000\000\000\000\000\000\336\007\000\000\000\000\000\000\333\007\000\000\000\000\000\000\331\007\000\000\000\000\000\000\326\007\000\000\000\000\000\000\330\007\000\000\000\000\000\000\327\007\000\000\000\000\000\000\330\007\000\000\000\000\000\000\327\007\000\000\000\000\000\000\330\007\000\000\000\000\000\000\327\007\000\000\000\000\000\000\330\007\000\000\000\000\000\000\327\007\000\000\000\000\000\000\330\007\000\000\000\000\000\000\330\007\000\000\000\000\000\000\330\007\000\000\000\000\000\000\337\007\000\000\000\000\000\000\327\007\000\000\000\000\000\000\330\007\000\000\000\000\000\000\327\007\000\000\000\000\000\000\330\007\000\000\000\000\000\000\330\007\000\000\000\000\000\000\330\007\000\000\000\000\000\000\327\007\000\000\000\000\000\000\326\007\000\000\000\000\000\000\330\007\000\000\000\000\000\000\327\007\000\000\000\000\000\000\330\007\000\000\000\000\000\000\327\007\000\000\000\000\000\000\330\007\000\000\000\000\000\000\327\007\000\000\000\000\000\000\327\007\000\000\000\000\000\000\330\007\000\000\000\000\000\000\327\007\000\000\000\000\000\000\330\007\000\000\000\000\000\000\330\007\000\000\000\000\000\000\327\007\000\000\000\000\000\000\325\007\000\000\000\000\000\000\340\007\000\000\000\000\000\000\340\007\000\000\000\000\000\000\330\007\000\000\000\000\000\000\330\007\000\000\000\000\000\000\327\007\000\000\000\000\000\000\330\007\000\000\000\000\000\000\330\007\000\000\000\000\000\000\327\007\000\000\000\000\000\000\327\007\000\000\000\000\000\000\330\007\000\000\000\000\000\000\327\007\000\000\000\000\000\000\327\007\000\000\000\000\000\000\326\007\000\000\000\000\000\000\327\007\000\000\000\000\000\000\330\007\000\000\000\000\000\000\327\007\000\000\000\000\000\000\326\007\000\000\000\000\000\000\326\007\000\000\000\000\000\000\330\007\000\000\000\000\000\000\330\007\000\000\000\000\000\000\327\007\000\000\000\000\000\000\327\007\000\000\000\000\000\000\330\007\000\000\000\000\000\000\327\007\000\000\000\000\000\000\327\007\000\000\000\000\000\000\327\007\000\000\000\000\000\000\327\007\000\000\000\000\000\000\327\007\000\000\000\000\000\000\327\007\000\000\000\000\000\000\327\007\000\000\000\000\000\000\327\007\000\000\000\000\000\000\327\007\000\000\000\000\000\000\327\007\000\000\000\000\000\000\326\007\000\000\000\000\000\000\331\007\000\000\000\000\000\000\334\007\000\000\000\000\000\000\334\007\000\000\000\000\000\000\327\007\000\000\000\000\000\000\326\007\000\000\000\000\000\000\327\007\000\000\000\000\000\000\327\007\000\000\000\000\000\000\327\007\000\000\000\000\000\000\327\007\000\000\000\000\000\000\330\007\000\000\000\000\000\000\327\007\000\000\000\000\000\000\327\007\000\000\000\000\000\000\330\007\000\000\000\000\000\000\331\007\000\000\000\000\000\000\340\007\000\000\000\000\000\000\331\007\000\000\000\000\000\000\334\007\000\000\000\000\000\000\331\007\000\000\000\000\000\000\335\007\000\000\000\000\000\000\331\007\000\000\000\000\000\000\331\007\000\000\000\000\000\000\331\007\000\000\000\000\000\000\335\007\000\000\000\000\000\000\331\007\000\000\000\000\000\000\331\007\000\000\000\000\000\000\330\007\000\000\000\000\000\000\331\007\000\000\000\000\000\000\331\007\000\000\000\000\000\000\331\007\000\000\000\000\000\000\337\007\000\000\000\000\000\000\330\007\000\000\000\000\000\000\331\007\000\000\000\000\000\000\331\007\000\000\000\000\000\000\331\007\000\000\000\000\000\000\330\007\000\000\000\000\000\000\330\007\000\000\000\000\000\000\331\007\000\000\000\000\000\000\330\007\000\000\000\000\000\000\340\007\000\000\000\000\000\000\337\007\000\000\000\000\000\000\340\007\000\000\000\000\000\000\331\007\000\000\000\000\000\000\331\007\000\000\000\000\000\000\331\007\000\000\000\000\000\000\331\007\000\000\000\000\000\000\331\007\000\000\000\000\000\000\333\007\000\000\000\000\000\000\331\007\000\000\000\000\000\000\330\007\000\000\000\000\000\000\331\007\000\000\000\000\000\000\331\007\000\000\000\000\000\000\337\007\000\000\000\000\000\000\335\007\000\000\000\000\000\000\331\007\000\000\000\000\000\000\330\007\000\000\000\000\000\000\331\007\000\000\000\000\000\000\331\007\000\000\000\000\000\000\331\007\000\000\000\000\000\000\331\007\000\000\000\000\000\000\331\007\000\000\000\000\000\000\331\007\000\000\000\000\000\000\330\007\000\000\000\000\000\000\331\007\000\000\000\000\000\000\331\007\000\000\000\000\000\000\331\007\000\000\000\000\000\000\331\007\000\000\000\000\000\000\331\007\000\000\000\000\000\000\331\007\000\000\000\000\000\000\336\007\000\000\000\000\000\000\330\007\000\000\000\000\000\000\331\007\000\000\000\000\000\000\331\007\000\000\000\000\000\000\330\007\000\000\000\000\000\000\331\007\000\000\000\000\000\000\330\007\000\000\000\000\000\000\331\007\000\000\000\000\000\000\331\007\000\000\000\000\000\000\330\007\000\000\000\000\000\000\331\007\000\000\000\000\000\000\330\007\000\000\000\000\000\000\331\007\000\000\000\000\000\000\331\007\000\000\000\000\000\000\331\007\000\000\000\000\000\000\330\007\000\000\000\000\000\000\331\007\000\000\000\000\000\000\331\007\000\000\000\000\000\000\326\007\000\000\000\000\000\000\331\007\000\000\000\000\000\000\331\007\000\000\000\000\000\000\331\007\000\000\000\000\000\000\331\007\000\000\000\000\000\000\331\007\000\000\000\000\000\000\331\007\000\000\000\000\000\000\331\007\000\000\000\000\000\000\331\007\000\000\000\000\000\000\331\007\000\000\000\000\000\000\331\007\000\000\000\000\000\000\331\007\000\000\000\000\000\000\330\007\000\000\000\000\000\000\331\007\000\000\000\000\000\000\330\007\000\000\000\000\000\000\330\007\000\000\000\000\000\000\326\007\000\000\000\000\000\000\330\007\000\000\000\000\000\000\331\007\000\000\000\000\000\000\330\007\000\000\000\000\000\000\330\007\000\000\000\000\000\000\331\007\000\000\000\000\000\000\331\007\000\000\000\000\000\000\331\007\000\000\000\000\000\000\330\007\000\000\000\000\000\000\325\007\000\000\000\000\000\000\331\007\000\000\000\000\000\000\331\007\000\000\000\000\000\000\340\007\000\000\000\000\000\000\336\007\000\000\000\000\000\000\336\007\000\000\000\000\000\000\331\007\000\000\000\000\000\000\327\007\000\000\000\000\000\000\331\007\000\000\000\000\000\000\331\007\000\000\000\000\000\000\330\007\000\000\000\000\000\000\331\007\000\000\000\000\000\000\331\007\000\000\000\000\000\000\331\007\000\000\000\000\000\000\331\007\000\000\000\000\000\000\331\007\000\000\000\000\000\000\330\007\000\000\000\000\000\000\331\007\000\000\000\000\000\000\331\007\000\000\000\000\000\000\331\007\000\000\000\000\000\000\331\007\000\000\000\000\000\000\331\007\000\000\000\000\000\000\331\007\000\000\000\000\000\000\337\007\000\000\000\000\000\000\332\007\000\000\000\000\000\000\331\007\000\000\000\000\000\000\331\007\000\000\000\000\000\000\326\007\000\000\000\000\000\000\331\007\000\000\000\000\000\000\331\007\000\000\000\000\000\000\335\007\000\000\000\000\000\000\332\007\000\000\000\000\000\000\333\007\000\000\000\000\000\000\331\007\000\000\000\000\000\000\331\007\000\000\000\000\000\000\330\007\000\000\000\000\000\000\331\007\000\000\000\000\000\000\330\007\000\000\000\000\000\000\330\007\000\000\000\000\000\000\331\007\000\000\000\000\000\000\331\007\000\000\000\000\000\000\330\007\000\000\000\000\000\000\330\007\000\000\000\000\000\000\331\007\000\000\000\000\000\000\331\007\000\000\000\000\000\000\330\007\000\000\000\000\000\000\330\007\000\000\000\000\000\000\330\007\000\000\000\000\000\000\330\007\000\000\000\000\000\000\330\007\000\000\000\000\000\000\331\007\000\000\000\000\000\000\331\007\000\000\000\000\000\000\331\007\000\000\000\000\000\000\331\007\000\000\000\000\000\000\336\007\000\000\000\000\000\000\334\007\000\000\000\000\000\000\330\007\000\000\000\000\000\000\330\007\000\000\000\000\000\000\330\007\000\000\000\000\000\000\330\007\000\000\000\000\000\000\330\007\000\000\000\000\000\000\331\007\000\000\000\000\000\000\330\007\000\000\000\000\000\000\332\007\000\000\000\000\000\000\330\007\000\000\000\000\000\000\330\007\000\000\000\000\000\000\322\007\000\000\000\000\000\000\331\007\000\000\000\000\000\000\327\007\000\000\000\000\000\000\330\007\000\000\000\000\000\000\331\007\000\000\000\000\000\000\330\007\000\000\000\000\000\000\330\007\000\000\000\000\000\000\327\007\000\000\000\000\000\000\330\007\000\000\000\000\000\000\326\007\000\000\000\000\000\000\331\007\000\000\000\000\000\000\331\007\000\000\000\000\000\000\324\007\000\000\000\000\000\000\330\007\000\000\000\000\000\000\331\007\000\000\000\000\000\000\331\007\000\000\000\000\000\000\330\007\000\000\000\000\000\000\327\007\000\000\000\000\000\000\330\007\000\000\000\000\000\000\330\007\000\000\000\000\000\000\327\007\000\000\000\000\000\000\331\007\000\000\000\000\000\000\330\007\000\000\000\000\000\000\330\007\000\000\000\000\000\000\327\007\000\000\000\000\000\000\330\007\000\000\000\000\000\000\337\007\000\000\000\000\000\000\331\007\000\000\000\000\000\000\331\007\000\000\000\000\000\000\327\007\000\000\000\000\000\000\336\007\000\000\000\000\000\000\331\007\000\000\000\000\000\000\331\007\000\000\000\000\000\000\331\007\000\000\000\000\000\000\337\007\000\000\000\000\000\000\331\007\000\000\000\000\000\000\336\007\000\000\000\000\000\000\330\007\000\000\000\000\000\000\331\007\000\000\000\000\000\000\324\007\000\000\000\000\000\000\330\007\000\000\000\000\000\000\327\007\000\000\000\000\000\000\327\007\000\000\000\000\000\000\326\007\000\000\000\000\000\000\330\007\000\000\000\000\000\000\330\007\000\000\000\000\000\000\331\007\000\000\000\000\000\000\330\007\000\000\000\000\000\000\332\007\000\000\000\000\000\000\336\007\000\000\000\000\000\000\332\007\000\000\000\000\000\000\332\007\000\000\000\000\000\000\332\007\000\000\000\000\000\000\331\007\000\000\000\000\000\000\332\007\000\000\000\000\000\000\332\007\000\000\000\000\000\000\332\007\000\000\000\000\000\000\332\007\000\000\000\000\000\000\334\007\000\000\000\000\000\000\332\007\000\000\000\000\000\000\336\007\000\000\000\000\000\000\332\007\000\000\000\000\000\000\332\007\000\000\000\000\000\000\332\007\000\000\000\000\000\000\337\007\000\000\000\000\000\000\332\007\000\000\000\000\000\000\332\007\000\000\000\000\000\000\332\007\000\000\000\000\000\000\332\007\000\000\000\000\000\000\332\007\000\000\000\000\000\000\332\007\000\000\000\000\000\000\332\007\000\000\000\000\000\000\332\007\000\000\000\000\000\000\332\007\000\000\000\000\000\000\332\007\000\000\000\000\000\000\331\007\000\000\000\000\000\000\331\007\000\000\000\000\000\000\332\007\000\000\000\000\000\000\332\007\000\000\000\000\000\000\332\007\000\000\000\000\000\000\332\007\000\000\000\000\000\000\332\007\000\000\000\000\000\000\331\007\000\000\000\000\000\000\332\007\000\000\000\000\000\000\332\007\000\000\000\000\000\000\332\007\000\000\000\000\000\000\335\007\000\000\000\000\000\000\332\007\000\000\000\000\000\000\332\007\000\000\000\000\000\000\332\007\000\000\000\000\000\000\331\007\000\000\000\000\000\000\332\007\000\000\000\000\000\000\332\007\000\000\000\000\000\000\332\007\000\000\000\000\000\000\332\007\000\000\000\000\000\000\331\007\000\000\000\000\000\000\332\007\000\000\000\000\000\000\335\007\000\000\000\000\000\000\331\007\000\000\000\000\000\000\334\007\000\000\000\000\000\000\332\007\000\000\000\000\000\000\331\007\000\000\000\000\000\000\332\007\000\000\000\000\000\000\332\007\000\000\000\000\000\000\331\007\000\000\000\000\000\000\332\007\000\000\000\000\000\000\332\007\000\000\000\000\000\000\332\007\000\000\000\000\000\000\332\007\000\000\000\000\000\000\332\007\000\000\000\000\000\000\332\007\000\000\000\000\000\000\333\007\000\000\000\000\000\000\332\007\000\000\000\000\000\000\332\007\000\000\000\000\000\000\332\007\000\000\000\000\000\000\332\007\000\000\000\000\000\000\332\007\000\000\000\000\000\000\332\007\000\000\000\000\000\000\337\007\000\000\000\000\000\000\327\007\000\000\000\000\000\000\334\007\000\000\000\000\000\000\332\007\000\000\000\000\000\000\333\007\000\000\000\000\000\000\332\007\000\000\000\000\000\000\331\007\000\000\000\000\000\000\336\007\000\000\000\000\000\000\334\007\000\000\000\000\000\000\332\007\000\000\000\000\000\000\331\007\000\000\000\000\000\000\332\007\000\000\000\000\000\000\332\007\000\000\000\000\000\000\332\007\000\000\000\000\000\000\332\007\000\000\000\000\000\000\332\007\000\000\000\000\000\000\332\007\000\000\000\000\000\000\332\007\000\000\000\000\000\000\332\007\000\000\000\000\000\000\332\007\000\000\000\000\000\000\332\007\000\000\000\000\000\000\332\007\000\000\000\000\000\000\331\007\000\000\000\000\000\000\332\007\000\000\000\000\000\000\331\007\000\000\000\000\000\000\336\007\000\000\000\000\000\000\332\007\000\000\000\000\000\000\331\007\000\000\000\000\000\000\332\007\000\000\000\000\000\000\336\007\000\000\000\000\000\000\331\007\000\000\000\000\000\000\332\007\000\000\000\000\000\000\332\007\000\000\000\000\000\000\331\007\000\000\000\000\000\000\330\007\000\000\000\000\000\000\331\007\000\000\000\000\000\000\332\007\000\000\000\000\000\000\331\007\000\000\000\000\000\000\332\007\000\000\000\000\000\000\332\007\000\000\000\000\000\000\331\007\000\000\000\000\000\000\332\007\000\000\000\000\000\000\331\007\000\000\000\000\000\000\331\007\000\000\000\000\000\000\332\007\000\000\000\000\000\000\331\007\000\000\000\000\000\000\332\007\000\000\000\000\000\000\332\007\000\000\000\000\000\000\334\007\000\000\000\000\000\000\332\007\000\000\000\000\000\000\331\007\000\000\000\000\000\000\331\007\000\000\000\000\000\000\332\007\000\000\000\000\000\000\331\007\000\000\000\000\000\000\337\007\000\000\000\000\000\000\332\007\000\000\000\000\000\000\331\007\000\000\000\000\000\000\331\007\000\000\000\000\000\000\331\007\000\000\000\000\000\000\332\007\000\000\000\000\000\000\331\007\000\000\000\000\000\000\332\007\000\000\000\000\000\000\331\007\000\000\000\000\000\000\332\007\000\000\000\000\000\000\332\007\000\000\000\000\000\000\332\007\000\000\000\000\000\000\331\007\000\000\000\000\000\000\331\007\000\000\000\000\000\000\332\007\000\000\000\